#version: 0.1 - BPE merges (порядок важен)
, </w>
о </w>
и </w>
е </w>
а </w>
. </w>
я </w>
ь </w>
с т
а л
п о
й </w>
м </w>
о в
е н
- </w>
р а
у </w>
к о
т о</w>
е р
т о
е л
п р
к а
о н
в </w>
и л
т </w>
н а
г о</w>
к </w>
ы </w>
в о
н е
н о</w>
н и
н е</w>
т ь</w>
н о
н а</w>
р о
х </w>
ал </w>
с </w>
о л
з а
ч то</w>
с я</w>
ю </w>
о т
он </w>
с ь</w>
в а
б ы
т а
е д
о д
с л
о б
н ы
р у
е го</w>
р е
в и
о р
в с
л а
е т
м о
ен и
пр и
бы л
м а
д а</w>
н у
м и</w>
д а
м у</w>
! </w>
пр о
ил </w>
ж е</w>
е м</w>
и з
в ы
е ст
д о
ка к</w>
л и
с к
? </w>
п ер
и т
ра з
е т</w>
с ка
ш и
ч а
н я
ст а
ов </w>
по д
е й</w>
л ь
с а
и н
к о</w>
ел </w>
у д
р и
' </w>
ал а</w>
г о
– </w>
с ко
с во
р ы
г ов
e </w>
он а</w>
ко то
е з
э то</w>
т е
к а</w>
по л
с о
в ер
гов ор
е е</w>
ел ь
б ы</w>
д у
з а</w>
л я
с е
; </w>
д ел
т и
к и</w>
ст в
с м
п а
е ж
м ен
м и
ска з
д ру
к и
г </w>
та к</w>
е му</w>
н ов
ч и
был о</w>
ал и</w>
з на
г да</w>
а н
е с
: </w>
вс е</w>
э то
ль ко</w>
л ю
у ж
к у
п о</w>
ну л
ра с
но й</w>
ст о
х од
ви д
б уд
ны й</w>
в ы</w>
г а
т ы</w>
и х</w>
из </w>
л и</w>
л о
и ть</w>
к ня
б а
б ол
п у
ил и</w>
б о
е щ
ш а
х о
в ши
т у
s </w>
е ч
к у</w>
н и</w>
о т</w>
но го</w>
ь ся</w>
д е
г ла
г ол
ер </w>
п ра
с и
ил а</w>
и с
то лько</w>
ени е</w>
но ст
ра н
р ов
сказ ал</w>
был </w>
ил ся</w>
ко й</w>
ени я</w>
т и</w>
то м</w>
ж и
с у
в о</w>
се б
п ь
д и
ны м</w>
о сь</w>
д о</w>
т е</w>
а ть</w>
д </w>
кото ры
а сь</w>
г ра
в з
н у</w>
но е</w>
м ол
ел ов
ко гда</w>
и сь</w>
ли ц
пр ед
л е
я т
м ы
и ч
ещ е</w>
ны е</w>
л а</w>
р </w>
ал ь
ал ся</w>
г ля
ж ен
с об
щ и
мо ж
ч у
ск и
д е</w>
я сь</w>
с ов
о м</w>
по сл
ка з
е ш
ч его</w>
кня з
л я</w>
а р
ш е</w>
л ен
ч ер
во з
ч ем</w>
о й</w>
р я
ин </w>
е в
ч елов
т а</w>
и м
т у</w>
ч ен
д ол
ч то
кото ро
ны х</w>
х от
у м
не го</w>
ш ел</w>
ма р
л </w>
про с
те пер
ел и</w>
см от
я ть</w>
с ил
у же</w>
р а</w>
не т</w>
тепер ь</w>
п ет
у ч
то го</w>
м не</w>
и ва
н </w>
бол ь
вс е
н ы</w>
с в
челов е
д ля</w>
пер ед
t </w>
к е</w>
нул </w>
т ы
т ься</w>
ра ж
ста в
во т</w>
не е</w>
е х
от в
ов а</w>
ет ся</w>
ен но</w>
ко м</w>
на я</w>
ез </w>
сто я
у б
п и
в ре
дру г</w>
т ер
не й</w>
в а</w>
в ед
л ы
он и</w>
д ре
ь я</w>
к ри
ь ю</w>
и м</w>
и т</w>
д ы
мен я</w>
в ал</w>
бы ть</w>
д у</w>
ни к
у ю</w>
ит ель
чу в
ст ор
ко н
лю б
сл у
ча ст
себ я</w>
o u
то му</w>
у з
ит е</w>
д ен
ст у
смот р
ал о</w>
с ер
говор ил</w>
л о</w>
был а</w>
ни ко
ш а</w>
ет е</w>
ан дре
что бы</w>
но м</w>
т ель
о п
пь ер</w>
лю д
на та
ни е</w>
ц </w>
ест ь</w>
м ест
ва я</w>
ст ви
м а</w>
ал ось</w>
ж а
n </w>
ни ма
княз ь</w>
ё </w>
гра ф
на ч
б у
м ы</w>
пер е
в ш
вс ё</w>
г од
м я</w>
с п
чув ств
п ла
ст ра
пра в
в друг</w>
т ре
это го</w>
был и</w>
ал ись</w>
ро ст
и ц
о чен
по м
ни м</w>
ж ел
очен ь</w>
г у
по ч
д ер
ко м
да же</w>
ран ц
ч е
ност и</w>
вре мя</w>
) </w>
ну ю</w>
оп ять</w>
за м
по ко
под </w>
г ор
ич </w>
ст ол
т ем</w>
б л
г у</w>
ф ранц
те б
ч но</w>
ен </w>
ст и</w>
о ж
г и
( </w>
о ста
ил ась</w>
дру го
ь е</w>
гол ов
ст ь</w>
ел а</w>
ни я</w>
ю т</w>
ни чего</w>
ва с</w>
к ры
ц а</w>
б ес
са мо
перед </w>
с ол
ов а
сл ы
ко го</w>
ва ть</w>
ча с</w>
то л
г де</w>
с дел
мож ет</w>
сл и</w>
это т</w>
себ е</w>
ал ась</w>
ва м</w>
об ра
у лы
ро д
г а</w>
ка ж
гол о
уж </w>
нико ла
г и</w>
пр е
вши сь</w>
л у
ени и</w>
щ а
м ер
в ест
челове к</w>
п ы
ско лько</w>
раз </w>
по тому</w>
ту т</w>
ски й</w>
в е</w>
во й
п е
в у
кня ж
ны ми</w>
ж из
i </w>
r </w>
с прос
франц уз
м о</w>
к ов
са м</w>
хо ро
ду м
к рас
ал е
буд ь</w>
нул ся</w>
ен ь
ст ро
с он
ми ну
р ед
ско ль
с ы
ю щ
e n
вед ь</w>
в ст
н я</w>
e s</w>
у т
ност ь</w>
мо ск
пр от
до м</w>
да р
да в
ко е</w>
г ро
в ес
я с
в ел
ната ша</w>
д ов
ж но</w>
ни х</w>
сказ ала</w>
ни будь</w>
еш ь</w>
ка за
которы е</w>
ш е
ник ов</w>
все х</w>
к ру
д ц
пр од
сл ед
в е
ы й</w>
ва р
п ис
с о</w>
ени ем</w>
о жи
ер а</w>
то р
которы й</w>
к то</w>
сл а
андре й</w>
ст и
ил ись</w>
буд то</w>
по з
посл е</w>
ка ми</w>
к ре
буд ет</w>
а х</w>
и в
a </w>
ка я</w>
ком на
пр и</w>
ш ь</w>
э ти
од ин</w>
ю щи
мо й</w>
д вер
во р
сов ер
во л
ит ься</w>
з н
сту п
ско го</w>
д ви
ска за
пр еж
х а
на до</w>
б ез</w>
с част
ж ал
т я
и я</w>
б ра
ра в
лиц о</w>
ра сколь
l e</w>
ки й</w>
ки м</w>
хоро ш
ел ь</w>
гла за</w>
о соб
пет ров
ко не
та м</w>
б ла
вз гля
о ф
м е</w>
мол од
б и
ил ось</w>
q u
до ро
пол ож
б </w>
дел о</w>
сво ей</w>
ма н
по ня
по том</w>
ств о</w>
улы б
б ез
я т</w>
об щ
ш ла</w>
ки е</w>
ст р
м у
ла сь</w>
r e</w>
е сли</w>
a i
оф иц
то й</w>
при ят
это м</w>
ч ал</w>
л ся</w>
d e</w>
не м</w>
б еж
совер ш
ч </w>
мо г</w>
посл ед
д об
ы х</w>
га р
е в</w>
сл ов
ы м</w>
го су
пу ст
тель но</w>
прод ол
я х</w>
то гда</w>
l </w>
и и</w>
г ру
из вест
на пол
по р
бол ее</w>
м ил
ру с
б е
ш и</w>
б ер
д и</w>
a n
м ал
де й
ре ш
мо г
э ти</w>
слы ш
сол да
ст ал</w>
по до
м еж
ств ен
зам ет
ско й</w>
к ра
ни ц
м е
ил о</w>
ива нов
госу дар
ы е</w>
р е</w>
и в</w>
ду ма
ж ал</w>
итель но</w>
я в
не сколько</w>
поко й
то т</w>
все гда</w>
м уж
ж </w>
ни й</w>
чувств ов
е м
дел а</w>
пр я
ни к</w>
ж д
б ор
т ел
об </w>
сво ю</w>
чер ез</w>
ени й</w>
теб е</w>
мож но</w>
ол ь
то же</w>
ех ал</w>
к ов</w>
отв ет
ка х</w>
напол е
д я</w>
б ро
ч ь</w>
з ы
ту з
спрос ил</w>
т р
т ру
та н
o n
мар гар
меж ду</w>
я ми</w>
ку да</w>
вы й</w>
об раз
ш ка</w>
см е
с а</w>
ро м</w>
нул а</w>
ден ь</w>
друго й</w>
л ов
м ного</w>
оста нов
про ст
каз алось</w>
сказа ть</w>
пр о</w>
т ся</w>
в еч
вы раж
никола й</w>
под ня
ло ша
n e</w>
княж на</w>
п л
й те</w>
то р</w>
ра я</w>
з </w>
г от
ест в
ств а</w>
ка кой</w>
люд ей</w>
расколь ников</w>
сво его</w>
гла за
стор он
г е</w>
каз ы
да ть</w>
ни и</w>
с пра
став ля
д ел</w>
боль ше</w>
с по
ку туз
ру ку</w>
сон я</w>
ски е</w>
г лу
но ю</w>
ou s</w>
с ем</w>
вши й</w>
мест е</w>
на д</w>
л он
ша я</w>
к ро
не му</w>
челове ка</w>
отв еч
ж у</w>
к нул</w>
са мы
рост ов</w>
дей стви
маргар ит
но му</w>
л еж
и стор
e u
ки х</w>
ск их</w>
к ров
c h
л уч
по в
г ен
об ъ
ин ы</w>
говор ить</w>
ба за
сл ова</w>
ш ей</w>
д ва</w>
хорош о</w>
ка р
х ва
мы сл
сов сем</w>
од но</w>
голов у</w>
вс его</w>
т ри
со м</w>
мар ья</w>
пр ов
по нима
петров ич</w>
д ор
ит ся</w>
я н
ал а
ти х
мен но</w>
ш у</w>
вз я
вст ре
r i
х а</w>
ш ли</w>
р ов</w>
с ов</w>
жиз ни</w>
ни м
которо й</w>
o n</w>
д ени
хо ч
е п
в али</w>
e r
во м</w>
дум ал</w>
ли сь</w>
э ту</w>
e s
е ть</w>
это й</w>
вид ел</w>
вид но</w>
за в
про из
ст ран
к ла
теб я</w>
т ь
ч а</w>
смотр ел</w>
н ен
во ль
да н
уж а
з де
еж ели</w>
жел а
соверш енно</w>
ск и</w>
се й
ру ки</w>
зна ю</w>
слу ча
и й</w>
б ел
о с
о ст
ни когда</w>
пь ера</w>
зн ал</w>
д ы</w>
граф </w>
коне ц</w>
о го</w>
говор ила</w>
боль ш
р у</w>
во й</w>
с ви
д ес
гла в
а д
у ми
то т
ар ми
которо е</w>
мину ту</w>
тот час</w>
ени ю</w>
пис ь
во ро
ар ка
которо го</w>
вс я
на ход
го ро
э та</w>
н ь</w>
вес ел
д ет
ин у</w>
в ра
на м</w>
люд и</w>
ч ет
сей час</w>
з в
арка ди
л е</w>
хот ел</w>
ва сил
вел и
ск а</w>
вс ем</w>
ген ер
зде сь</w>
са н
а ми</w>
ра до
то чно</w>
граф ин
кри чал</w>
ч и</w>
раз говор
преж де</w>
ко ман
б ед
ни ка
сво и</w>
с уд
па в
p a
й ся</w>
ст </w>
ла н
княз я</w>
поч ти</w>
в ла
обра т
к вар
дви ж
ф и
эти х</w>
ло ж
у щ
ду ш
дру г
о гля
хот я</w>
и на</w>
а ри
бу р
р о</w>
с я
в ал
я м</w>
л ет
ва ясь</w>
маргарит а</w>
ц ел
и ю</w>
ич е
о к
ю сь</w>
б ли
го м</w>
з я</w>
жен </w>
по й
о бы
св ет
сво е</w>
на конец</w>
х ол
ш ед
н ель
л ю</w>
с ед
в ала</w>
и д
д во
м но
ва ет</w>
за д</w>
под ум
с раж
нель зя</w>
о х
ши х</w>
рас сказ
сво им</w>
голо с</w>
с ред
прот ив</w>
отвеч ал</w>
v ous</w>
ш его</w>
ну в</w>
квар ти
у с
ба в
о г
ре з
зна ч
смотр я</w>
лоша д
ст ало</w>
дав но</w>
на с</w>
при ня
ку ра
д ал</w>
го с
о став
база ров</w>
ну ть</w>
мал ень
д ро
и ск
я щ
ст а</w>
ят ель
е ю</w>
б от
ру ю</w>
о ю</w>
б од
сл уж
б а</w>
вы ход
в месте</w>
е ча
им о</w>
вре мен
чувствов ал</w>
глаза ми</w>
б р
ер у</w>
раз д
то ра</w>
о к</w>
на ро
ку ю</w>
за чем</w>
ви ть</w>
па р
ен ный</w>
пом н
a u
гро м
й ти</w>
м ед
об о
а в
са ми</w>
ле г
не прият
сил ь
e t</w>
m e</w>
од ного</w>
на зад</w>
и ми</w>
мест о</w>
кото рая</w>
« </w>
» </w>
д но</w>
су щ
але к
спра ши
от кры
и е</w>
ч е</w>
р ы</w>
гот ов
раз уми
ста р
стра ш
o m
у т</w>
на д
то ро
дер ев
чи та
гос под
разуми х
ц е</w>
у вид
хо ть</w>
которы х</w>
од на</w>
лиц а</w>
l a</w>
сво бод
ш </w>
во с
ско м</w>
па с
ну жно</w>
по вер
сво их</w>
кро ме</w>
чи к</w>
ц ы</w>
ли ч
вши е</w>
во про
лен </w>
уд ив
ил ь
см ер
у сп
по жал
что б</w>
л ь</w>
дол го</w>
до ма</w>
а я</w>
ска я</w>
те х</w>
поч ему</w>
ответ ил</w>
в у</w>
лиц е</w>
сво й</w>
особ ен
qu e</w>
ну лась</w>
ч ит
e r</w>
о е</w>
t e</w>
вы со
говор или</w>
по ря
вши х</w>
пря мо</w>
тр и</w>
дол ох
во д
з ем
в нима
ис пу
л ения</w>
кото рую</w>
двер ь</w>
и не</w>
продол жал</w>
м н
о то
в ет
т вер
ч ки</w>
зна ть</w>
каж ется</w>
счаст ли
при бав
г е
ни ка</w>
которо м</w>
к нов
в ался</w>
стви е</w>
вш е
ф а
луч ше</w>
подум ал</w>
z </w>
вс ю</w>
в перед</w>
не смотря</w>
вы шел</w>
с ю
б о</w>
об ед
тол п
жиз нь</w>
ни з
у вер
ве сь</w>
ш ло</w>
особ енно</w>
я з
и но
п ло
по р</w>
стоя л</w>
про говорил</w>
з ел
ска ж
од ной</w>
аркади й</w>
в про
та ки</w>
л ение</w>
e n</w>
пла т
та кое</w>
ты ся
à </w>
пет ер
впро чем</w>
нач ал</w>
петер бур
не й
об ход
та кой</w>
им е
рост ов
д вор
кутуз ов</w>
объ яс
и ш
é </w>
ж ест
наполе он</w>
ск ры
пол у
п ят
сан д
e m
чу ть</w>
бро с
ко ро
ва ми</w>
ов ать</w>
по шел</w>
о че
e z</w>
р ен
т ра
л ет</w>
ры й</w>
е ц</w>
вш его</w>
хва т
ши й</w>
г ан
дол ж
мо гу</w>
o i
ц ен
е ся</w>
ан на</w>
гля дя</w>
ли во</w>
говор ит</w>
ник то</w>
т во
д ву
es t</w>
ва ж
зна ет</w>
графин я</w>
алек санд
х е</w>
и г
сер дц
и шь</w>
времен и</w>
соб ой</w>
от но
ро ма
при ход
ех ать</w>
v i
ед ин
ин тер
бл ед
м г
ни ми</w>
дел а
д аль
офиц ер</w>
пр об
ч ка</w>
ш ки</w>
хо м</w>
пер вый</w>
ы ми</w>
г уб
в ся</w>
слу ша
ю тся</w>
с си
с ен
л ест
см еш
со стоя
ги е</w>
з ву
обы кнов
з я
t i
з ал
ъ ез
ста нов
нов а
ма тер
бл из
эти м</w>
и менно</w>
с покой
d i
ни ем</w>
ши е</w>
в ещ
пе ра
тя жел
l le</w>
бла го
l es</w>
ужа с
им пера
ко л
ст ре
ши м</w>
ски м</w>
во прос
сп еш
солда т</w>
я за
д ет</w>
пы т
пожал у
чи сл
дц ать</w>
я лся</w>
кри кнул</w>
голо сом</w>
ско е</w>
га я</w>
ка кая</w>
ста ри
c e</w>
ис пол
мог ла</w>
гов ари
мг нов
ност ью</w>
г л
ил а
дов оль
ст вом</w>
ев на</w>
коне чно</w>
вопро с</w>
хо зя
d </w>
м ор
дел и</w>
ю тан
действи тельно</w>
ад ъ
вой ска</w>
адъ ютан
з л
о ко
ро б
уд ов
радо ст
ч у</w>
г ер
и мо
со гла
пи са
тре б
об раж
бла год
стр о</w>
дени сов</w>
до к
я щи
не обход
ско ре
сво ем</w>
васил ий</w>
пр ест
з дор
у р
ма ть</w>
ко му</w>
ест во</w>
ва ться</w>
од на
м ес
сдел ать</w>
ше п
улыб кой</w>
к лон
про кура
х у</w>
ден ь
зна ете</w>
государ ь</w>
во лан
бы стро</w>
ко р
га ми</w>
пра во</w>
ты й</w>
улы ба
рассказ ы
он о</w>
ст ала</w>
с вид
м я
е г
ма с
го ст
си дел</w>
дол жен</w>
сл иш
слиш ком</w>
ич а</w>
п аль
са ма</w>
пред ставля
оче видно</w>
ни ть</w>
при вы
дер ж
ющи й</w>
s i
ва н
с ест
м ит
смот ре
по мо
дел ать</w>
ка тер
j e</w>
андре я</w>
моск ве</w>
продол ж
x x
чер а</w>
разговор </w>
вид имо</w>
сю да</w>
за ня
к лю
вы м</w>
во ло
ш ев
ва ше</w>
люб ов
сер д
д ра
при зна
ер ом</w>
ь и</w>
пер ест
ива н</w>
комна те</w>
двер и</w>
вид еть</w>
интер ес
т ен
ь ми</w>
ст али</w>
каж ды
при каза
под ви
мен ь
ст еп
а на
ма я</w>
раз ве</w>
т ро
со бы
замет ил</w>
a r
ест ва</w>
француз ов</w>
д але
ст ен
те м
дц а
комна ты</w>
мысл ь</w>
арми и</w>
разумих ин</w>
у п
с е</w>
пер во
сдел а
дву х</w>
m </w>
ко ю</w>
по ла
рас с
ход ил</w>
ба р
ко ров
с ы</w>
к ал</w>
не до
чи т</w>
зна ко
которы м</w>
п ле
пол уч
чувств о</w>
обра ща
ка кие</w>
ре б
ра бот
е й
н ю</w>
у да
се м
см ы
комна ту</w>
подо шел</w>
ц и
голов ой</w>
при в
ста ра
лен но</w>
нач ала</w>
ка би
жен щи
раз ум
стр ел
ь ев</w>
на зы
ст ы
s e</w>
з р
до й</w>
ств у
т ра</w>
бу ма
гла з</w>
еств ен
пь еру</w>
пр ил
е мы
но чь</w>
взя л</w>
собы ти
ми на
со зна
сторон ы</w>
тих о</w>
ы ш
ча й
о хот
пись мо</w>
в чера</w>
яс но</w>
ру ками</w>
друг их</w>
во ск
сто ит</w>
ка кое</w>
сердц е</w>
в и</w>
ш ест
пол ков
останов ился</w>
ино гда</w>
е сь</w>
при ч
ит ел
п еч
ск ую</w>
на прав
ну вшись</w>
ов ал</w>
с ор
вер но</w>
ц елов
воз мож
ми ха
посл ыш
н ю
б ал
не ю</w>
чи ть</w>
это му</w>
се год
д ве</w>
в ен
н ер
на ми</w>
ду р
от ца</w>
сдел ал</w>
дру га</w>
д ня</w>
п лен
ь ма</w>
го сти
иванов ич</w>
смы сл
и во
га й
су т
челов еч
воз вра
прибав ил</w>
t r
ов у</w>
за ко
б ил</w>
с ел</w>
из мен
слу ш
само м</w>
мы сли</w>
след у
та ким</w>
t re</w>
l i
н ал</w>
у ви
ч ил</w>
про ис
ел ось</w>
лиц ом</w>
и щ
и ст
он а
сво ему</w>
бо й</w>
ру кой</w>
обрат ился</w>
сво ими</w>
е ви
ж да
д ли
нач аль
ел о</w>
вы с
ту да</w>
ч ку</w>
во шел</w>
дол жно</w>
слов о</w>
отно ш
б у</w>
ни ки</w>
бо г</w>
каз ал</w>
кри ч
i l</w>
ц у</w>
м ет
мо е</w>
м аль
ско ро</w>
лест ниц
мол ча
x </w>
само е</w>
прост о</w>
день ги</w>
щ е
жен щ
дру гие</w>
по спеш
да я</w>
бол ез
моск вы</w>
в след
пор фи
за ви
мо м</w>
до х
говор ю</w>
на де
c om
об а</w>
от чего</w>
порфи ри
ма ст
ов ой</w>
лов на</w>
улыба ясь</w>
вес ьма</w>
м ер</w>
ж ить</w>
сер ь
прав да</w>
ai s</w>
соб ою</w>
ста рый</w>
ш ля
ба т
по тер
ющ его</w>
одна ко</w>
свид ри
свидри гай
м от
ки ми</w>
ех али</w>
само го</w>
ка ким</w>
муж и
a m
от ец</w>
г ре
с па
пред ел
полож ение</w>
отв еча
сегод ня</w>
а м</w>
мо я</w>
м ало</w>
государ я</w>
долох ов</w>
то к</w>
с к</w>
з ол
х ся</w>
ь ко</w>
при ез
уб еж
не ожи
расколь ник
беж ал</w>
мол ча</w>
неожи дан
у х
та ми</w>
под у
сл уч
та кие</w>
сраж ения</w>
c </w>
г ал</w>
с пу
сту па
за кры
ми мо</w>
en t</w>
бра т</w>
молод ой</w>
по ро
ч ин
го ся</w>
ти ть</w>
ло сь</w>
ен ное</w>
ст ью</w>
пре крас
хол од
ж ер
о ру
ш ее</w>
у сил
гу са
п ила
к ни
ж ени
ч ест
бл ест
выраж ение</w>
пов тор
испу ган
зав тра</w>
o r
но с
вы х</w>
по ка</w>
ива я</w>
ожи в
ю шка</w>
ро сси
ста ро
ш ку</w>
пом ни
не счаст
вы е</w>
ста ру
бор и
хоч у</w>
доволь но</w>
серь ез
по ль
уд ер
д али</w>
перед и</w>
прав ля
иванов на</w>
огля ды
смотре ть</w>
хот елось</w>
я д
в ли
аль но</w>
ех а
год а</w>
пе ча
кру г</w>
eu r</w>
б ала
д р
д он
ви н
вс ей</w>
се мен
чи ст
буд у</w>
говор ят</w>
здор ов
мес я
ма х
дел е</w>
од ну</w>
дума ть</w>
наполе она</w>
не много</w>
ним ал</w>
по смотрел</w>
ь те</w>
не извест
к нула</w>
ма три
m on</w>
моск ву</w>
кажды й</w>
коров ьев</w>
ни ч
под об
м уч
стоя ли</w>
смотр ела</w>
не пре
кре ст
солда ты</w>
под ле</w>
удов оль
скоре е</w>
ис пы
слыш ал</w>
пл еч
дли н
е к
a v
пь я
ен ные</w>
пет я</w>
граф а</w>
сол н
ска жу</w>
волан д</w>
па н
в ход
поня л</w>
не воль
вши йся</w>
даль ше</w>
око ло</w>
о предел
б е</w>
ч ет</w>
ещ а
ди ва
на стоя
тре во
мог ли</w>
ме й
дени сов
хозя й
свидригай л
ен о</w>
ка н
г он
да ния</w>
кру ж
до ме</w>
о пас
зл об
u </w>
то н
не ж
го й</w>
ку р
н рав
самы й</w>
генер ал</w>
на против</w>
торо п
д ь</w>
по ст
ф ор
в ну
с вер
е г</w>
ран ен
при ехал</w>
в переди</w>
ш у
м ел
гля ды
т ова
ющ их</w>
поня ть</w>
ню ю</w>
д ва
та й
ня я</w>
пр ез
бол кон
но ги</w>
во спо
помн ил</w>
прокура тор</w>
бори с</w>
п </w>
х и</w>
з ов
д от
са д
ро ди
св ете</w>
дум ала</w>
у слов
люб лю</w>
стре м
сл ез
ен ного</w>
чувств у
чит ал</w>
м ра
ско р
княз ю</w>
ни что
на мер
спрос ила</w>
зна ешь</w>
доро ге</w>
чет ы
ста вить</w>
p r
ка т
ен ной</w>
х ло
част о</w>
я зы
голо са</w>
казы вая</w>
мед ленно</w>
х ра
ш та
л еч
доб ро
ру ках</w>
сторон у</w>
воль те</w>
лошад ь</w>
в не
м ся</w>
ви з
сил ы</w>
о сти</w>
ща я</w>
бес покой
благод ар
люб ви</w>
ча ть</w>
те сь</w>
сто й</w>
пет р</w>
уб и
с пи
ка м</w>
ми ни
га ть</w>
вш ей</w>
само й</w>
образ ом</w>
понима ю</w>
матер и</w>
во круг</w>
о щ
та я</w>
нул о</w>
при шел</w>
п ять</w>
друго е</w>
по х
с у</w>
ну ж
т ов</w>
бо га
о си
каз ался</w>
г ря
пред став
за ди</w>
коман ди
шеп т
ко т</w>
ход ить</w>
у лиц
u n</w>
офиц ер
смер ти</w>
ско му</w>
м ной</w>
лю бо
ц ар
ен ных</w>
од ним</w>
взгля д</w>
ц ии</w>
глав но
пав ел</w>
н ел
от ча
вер о
при чи
во стор
ви нова
дале ко</w>
ра к
ка ра
р ал</w>
г ин
ди т</w>
мол ч
ств енно</w>
то ч
м еч
гор я
ни ца</w>
сл ова
i i</w>
воз можно</w>
рас поря
в ни
на чи
т ер</w>
мол в
воз ду
им ел</w>
пи та
вст ал</w>
лоша ди</w>
коман ду
ид ти</w>
согла с
мит ри
ана тол
ш ел
ра х</w>
уж д
ша ть</w>
b ou
за кричал</w>
зам еча
александ ров
р ю
за бы
нико го</w>
про ща
больш ой</w>
пред лож
с чита
женщи на</w>
веро ят
з у
ен а</w>
от да
за па
до сто
щи й</w>
ва ют</w>
гру ст
весел о</w>
о гром
над еж
э лен</w>
знако мы
при сут
l u
щ е</w>
та к
ов ан
ба гра
ж ар
ко лен
по треб
миха й
д митри
багра ти
е к</w>
по хо
стор он</w>
t ou
стви я</w>
по ступ
х му
мог ло</w>
прот иво
пр ер
ро к</w>
не с</w>
ни ю</w>
к ала</w>
не уж
о пу
ду ше</w>
за тем</w>
ря дом</w>
рома нов
а к
а за
од е
зна я</w>
сто п
рост ова</w>
поня т
нен а
реб ен
главно команду
о ч
в ов
ел я</w>
ку п
т ря
сп е
вер нулся</w>
ющи е</w>
è re</w>
ната ши</w>
бер ли
ц еп
тяжел о</w>
уз нал</w>
е б
1 </w>
д ал
о ши
г ов</w>
в ало</w>
жа я</w>
француз ы</w>
каза ть</w>
кра й
pa s</w>
ус поко
де ятель
тыся ч</w>
любо пыт
п я
я р
но ч
ск у</w>
все ми</w>
зн ала</w>
глаза х</w>
спра вед
по бед
ти й</w>
ал па
соб а
ск воз
де ву
за дум
сы на</w>
поз иц
во общ
пов то
стран но</w>
генер ал
обраща ясь</w>
проис ход
непре менно</w>
кня гин
аза зел
алпа ты
вообщ е</w>
азазел ло</w>
ед и
вы раз
га х</w>
о св
за говорил</w>
ги б
ющи м</w>
ча са</w>
истор и
й дет</w>
за ми</w>
ли во
от того</w>
поч т
в торо
плат ье</w>
това ри
у в
ф у
г ал
с ня
ез д
сла в
г ений</w>
случа е</w>
зел ен
долж ны</w>
необход имо
семен ов
неволь но</w>
неуж ели</w>
r a
ка п
ств е</w>
ч уж
ен ным</w>
дер жи
ви жу</w>
н че</w>
и р
m a
м ель
ти я</w>
и гра
сов ет
о кон
p ou
при нима
от вор
гля дел</w>
лошад ей</w>
по целов
берли о
сквоз ь</w>
ны нче</w>
за п
ход я</w>
вши м</w>
друго го</w>
кре п
ви дела</w>
дес ять</w>
воро т
буд ут</w>
увид ал</w>
при мер</w>
i n
ст ер
со ф
сто ро
вид </w>
мест а</w>
в ались</w>
ти че
чет вер
при готов
на ста
у зна
г нул</w>
по стоя
в алась</w>
никола я</w>
мину ты</w>
кре сл
тел е
объяс н
крич ала</w>
ра ми</w>
по да
ши н
пу ль
при гла
люб ил</w>
у част
рав но</w>
мол чал</w>
en ne</w>
еств енно</w>
бы вает</w>
усп ел</w>
а т
п ал</w>
ста ви
говор я</w>
ду ня</w>
пис ал</w>
ai t</w>
послед нее</w>
бе г
чувствов ала</w>
веч ер</w>
хоч ет</w>
тре ть
мгнов ение</w>
свидригайл ов</w>
из ви
по раз
л ес
зна ком
ка кого</w>
про шу</w>
со сед
со мн
за клю
повтор ил</w>
анатол ь</w>
на б
ю ся</w>
ш ем</w>
я л</w>
мер е</w>
у стро
вы шла</w>
кутуз ова</w>
особен ности</w>
сер ге
катер ина</w>
зна чит</w>
вероят но</w>
ка м
вс ко
ск ов
пол ов
к ля
де ть</w>
го сть</w>
мину т</w>
ер ия</w>
со общ
ка вал
в место</w>
яза н
ит есь</w>
пр ел
да м</w>
про ч
са м
од ин
обра щ
дума ю</w>
по ехал</w>
ко лон
кар ма
порфири й</w>
пр ы
не в
да в</w>
пер ен
сл ов</w>
в ую</w>
хот ите</w>
нач ин
у слы
си дела</w>
подня л</w>
ча сов</w>
ну лись</w>
ника кого</w>
губ ер
пила т</w>
m o
ра д
та х</w>
мо ей</w>
сто м</w>
ят ся</w>
прос ил</w>
бо гу</w>
каж до
о кру
го спо
спо соб
глав ное</w>
поспеш но</w>
вше гося</w>
о скор
ер к
б ил
л уж
ни н</w>
та кого</w>
от ступ
взгля дом</w>
по казалось</w>
ника но
вши еся</w>
каби не
воспо мина
слез ы</w>
ен ы</w>
ла в
по ли
ши ро
ят ься</w>
по ра</w>
ни ком</w>
дор </w>
горо д</w>
гром ко</w>
св яз
хват ил</w>
любов ь</w>
печа т
испы ты
повто ря
ев гений</w>
о м
по с
от ы
ск у
ри м
в пол
ров а</w>
жен ы</w>
стоя ла</w>
ед ва</w>
сер ди
кры ль
л ением</w>
та кая</w>
ц ев</w>
ужас но</w>
док тор</w>
еви ч</w>
ь я
он у
ск ла
ку н
чер т</w>
тер п
од ном</w>
тор ж
улыб нулся</w>
ниц ы</w>
движ ения</w>
ра стоп
ра ть</w>
т ет
х ри
си т</w>
ев а</w>
п лы
ш ут
у дар
рус ских</w>
помо щ
v </w>
н ал
х ов
на ру
с ил</w>
нул и</w>
де ви
у мол
гу т</w>
л ении</w>
d es</w>
ви дом</w>
тор у</w>
о пуст
встре т
на хму
пр он
не сл
ш ему</w>
ч ему</w>
сер ед
за нима
княж ны</w>
до мой</w>
дро ж
адъютан т</w>
то бой</w>
п а</w>
в то
ты е</w>
ты м</w>
ва ется</w>
qu </w>
полож ении</w>
му н
ени ях</w>
яв ля
л ению</w>
господ и</w>
t é</w>
пожалу й
у гл
стол ько</w>
раскольник ова</w>
денисов а</w>
гря з
пуль х
пожалуй ста</w>
2 </w>
ст о</w>
и ем</w>
да ет</w>
г ри
ду т</w>
которо му</w>
гол ова</w>
стол </w>
о сть</w>
гро з
вол н
доро гу</w>
й дя</w>
произ о
сме ялся</w>
раз говари
с чет</w>
вни з</w>
об и
х ит
ра д</w>
и нач
соб ствен
глу бо
коро т
человеч е
bou ri
инач е</w>
раз у</w>
ро де</w>
св ет</w>
прот я
беж ала</w>
тру д
фи гу
ростов ых</w>
се кун
bouri enne</w>
дру ж
ан г
св еч
бра та</w>
сто ятель
разд раж
под роб
не подви
вши хся</w>
д яд
мун ди
а ре
ши ть</w>
в ста
ов али</w>
ан </w>
жи во
чи во</w>
за пла
вел ич
ц ель</w>
рус ские</w>
в шая</w>
движ ение</w>
ч рез
радост но</w>
воск ли
про молв
товари щ
ф е
в он</w>
чи в</w>
не чего</w>
про шел</w>
голов е</w>
ната шу</w>
по чувствовал</w>
стара ясь</w>
ав дот
s s
s u
я я</w>
з ва
про ф
ск е</w>
м ет</w>
в ез
д ель
до чер
под нима
ру бл
сы н</w>
вол нов
c on
ств овать</w>
благо род
поз вольте</w>
ц е
r e
ра ш
т ил
ест и</w>
ши ми</w>
под ъ
пу ска
жен а</w>
см ех
подня лся</w>
леж а
леж ал</w>
вла сть</w>
ка кую</w>
на ш</w>
пожалу й</w>
ору ди
начи на
прер ы
ал ь</w>
ко ст
ц ем</w>
раз а</w>
по па
с ход
ба ры
св еж
кон ч
франц у
ли чно</w>
на ши</w>
тру дно</w>
во ображ
вы чай
о сторо
чрез вычай
у г
м ени
по ход
де во
пра ви
ч ин</w>
ч ке</w>
вой ны</w>
ниц у</w>
суд ь
буд ущ
неожидан но</w>
настоя щ
на пример</w>
ж и</w>
и на
ски ми</w>
ты ми</w>
хот ела</w>
и вшись</w>
вар ен
u ne</w>
n ous</w>
самы х</w>
дес я
ва ш</w>
на смеш
слуш ал</w>
случ илось</w>
кавал ер
v o
ор </w>
об ла
ф ет
мо и</w>
от дел
с нов
п ес
вид ал</w>
ло ко
ис ч
ж ать</w>
ко ле
тол ст
дов ер
прот ив
an t</w>
од ному</w>
кров ь</w>
кварти ре</w>
наро д</w>
пло ща
не обыкнов
пере бил</w>
през р
e t
по ка
ф из
ду не
ра чи
еч ка</w>
и мы
щи м</w>
c ou
чувств а</w>
в че
вест и</w>
t es</w>
ше ю</w>
т вор
кла ды
огля нулся</w>
ок на</w>
бли же</w>
п разд
разум е
послыш ался</w>
жер т
княгин я</w>
ф а</w>
ст в</w>
мен ее</w>
бо же</w>
стви и</w>
а вст
доро ги</w>
слов ом</w>
ов ым</w>
та ких</w>
вся кий</w>
сраж ение</w>
спокой но</w>
по клон
вой ск</w>
росси и</w>
по нимал</w>
1 8
ро т</w>
та щ
об ма
до м
ча ми</w>
са по
д ала</w>
пол о
пол ез
дел ал</w>
см ол
од ни</w>
х ле
ш ке</w>
ната ше</w>
стви ем</w>
пере мен
m a</w>
рав но
qu i</w>
an s</w>
отвеч ала</w>
пров од
со ображ
мар ьи</w>
женщ ины</w>
d u</w>
у казывая</w>
впол не</w>
вче раш
авст ри
l l
ка ть</w>
та р
ч ей</w>
ду ра
и мен
жи в
ну ться</w>
слу ши
смотр ели</w>
стол а</w>
каз алась</w>
ве й
сред и</w>
долж на</w>
она пар
ден ег</w>
два дцать</w>
уби й
ж а</w>
ф ра
он ы</w>
э та
раз в
ри ть</w>
лиц </w>
лен ный</w>
жел ал</w>
из ред
моск ов
спраши вал</w>
веч ером</w>
гра жда
ха рак
александров на</w>
изред ка</w>
х у
с не
б ре
с их</w>
ба ми</w>
д ней</w>
пом ин
ут ра</w>
я лась</w>
глу по
самы м</w>
истор иче
низ у</w>
на дца
перво го</w>
пав ловна</w>
пульх ерия</w>
ю б
n i
т ал
ил ь</w>
не с
по ру
п ил</w>
до ма
ка мен
вс ему</w>
