#version: 0.1 - BPE merges (порядок важен)
, </w>
о </w>
и </w>
е </w>
а </w>
. </w>
я </w>
ь </w>
с т
а л
п о
й </w>
м </w>
о в
е н
- </w>
р а
у </w>
к о
т о</w>
е р
т о
е л
п р
к а
о н
в </w>
и л
т </w>
н а
г о</w>
к </w>
ы </w>
в о
н е
н о</w>
н и
н е</w>
т ь</w>
н о
н а</w>
р о
х </w>
ал </w>
с </w>
о л
з а
ч то</w>
с я</w>
ю </w>
о т
он </w>
с ь</w>
в а
б ы
т а
е д
о д
с л
о б
н ы
р у
е го</w>
р е
в и
о р
в с
л а
е т
м о
ен и
пр и
бы л
м а
д а</w>
н у
м и</w>
д а
м у</w>
! </w>
пр о
ил </w>
ж е</w>
е м</w>
и з
в ы
е ст
д о
ка к</w>
л и
с к
? </w>
п ер
и т
ра з
е т</w>
с ка
ш и
ч а
н я
ст а
ов </w>
по д
е й</w>
л ь
с а
и н
к о</w>
ел </w>
у д
р и
' </w>
ал а</w>
г о
– </w>
с ко
с во
р ы
г ов
e </w>
он а</w>
ко то
е з
э то</w>
т е
к а</w>
по л
с о
в ер
гов ор
е е</w>
ел ь
б ы</w>
д у
з а</w>
л я
с е
; </w>
д ел
т и
к и</w>
ст в
с м
п а
е ж
м ен
м и
ска з
д ру
к и
г </w>
та к</w>
е му</w>
н ов
ч и
был о</w>
ал и</w>
з на
г да</w>
а н
е с
: </w>
вс е</w>
э то
ль ко</w>
л ю
у ж
к у
п о</w>
ну л
ра с
но й</w>
ст о
х од
ви д
б уд
ны й</w>
в ы</w>
г а
т ы</w>
и х</w>
из </w>
л и</w>
л о
и ть</w>
к ня
б а
б ол
п у
ил и</w>
б о
е щ
ш а
х о
в ши
т у
s </w>
е ч
к у</w>
н и</w>
о т</w>
но го</w>
ь ся</w>
д е
г ла
г ол
ер </w>
п ра
с и
ил а</w>
и с
то лько</w>
ени е</w>
но ст
ра н
р ов
сказ ал</w>
был </w>
ил ся</w>
ко й</w>
ени я</w>
т и</w>
то м</w>
ж и
с у
в о</w>
се б
п ь
д и
ны м</w>
о сь</w>
д о</w>
т е</w>
а ть</w>
д </w>
кото ры
а сь</w>
г ра
в з
н у</w>
но е</w>
м ол
ел ов
ко гда</w>
и сь</w>
ли ц
пр ед
л е
я т
м ы
и ч
ещ е</w>
ны е</w>
л а</w>
р </w>
ал ь
ал ся</w>
г ля
ж ен
с об
щ и
мо ж
ч у
ск и
д е</w>
я сь</w>
с ов
о м</w>
по сл
ка з
е ш
ч его</w>
кня з
л я</w>
а р
ш е</w>
л ен
ч ер
во з
ч ем</w>
о й</w>
р я
ин </w>
е в
ч елов
т а</w>
и м
т у</w>
ч ен
д ол
ч то
кото ро
ны х</w>
х от
у м
не го</w>
ш ел</w>
ма р
л </w>
про с
те пер
ел и</w>
см от
я ть</w>
с ил
у же</w>
р а</w>
не т</w>
тепер ь</w>
п ет
у ч
то го</w>
м не</w>
и ва
н </w>
бол ь
вс е
н ы</w>
с в
челов е
д ля</w>
пер ед
t </w>
к е</w>
нул </w>
т ы
т ься</w>
ра ж
ста в
во т</w>
не е</w>
е х
от в
ов а</w>
ет ся</w>
ен но</w>
ко м</w>
на я</w>
ез </w>
сто я
у б
п и
в ре
дру г</w>
т ер
не й</w>
в а</w>
в ед
л ы
он и</w>
д ре
ь я</w>
к ри
ь ю</w>
и м</w>
и т</w>
д ы
мен я</w>
в ал</w>
бы ть</w>
д у</w>
ни к
у ю</w>
ит ель
чу в
ст ор
ко н
лю б
сл у
ча ст
себ я</w>
o u
то му</w>
у з
ит е</w>
д ен
ст у
смот р
ал о</w>
с ер
говор ил</w>
л о</w>
был а</w>
ни ко
ш а</w>
ет е</w>
ан дре
что бы</w>
но м</w>
т ель
о п
пь ер</w>
лю д
на та
ни е</w>
ц </w>
м ест
ест ь</w>
ва я</w>
ст ви
м а</w>
ал ось</w>
ж а
n </w>
ни ма
княз ь</w>
ё </w>
гра ф
на ч
б у
м ы</w>
пер е
в ш
вс ё</w>
г од
м я</w>
с п
чув ств
п ла
ст ра
пра в
в друг</w>
т ре
это го</w>
был и</w>
ал ись</w>
ро ст
и ц
о чен
по м
ни м</w>
ж ел
очен ь</w>
г у
по ч
д ер
ко м
да же</w>
ран ц
ч е
ност и</w>
вре мя</w>
) </w>
ну ю</w>
оп ять</w>
за м
по ко
под </w>
г ор
ич </w>
ст ол
т ем</w>
б л
г у</w>
ф ранц
те б
ч но</w>
ен </w>
ст и</w>
о ж
г и
( </w>
о ста
ил ась</w>
дру го
ь е</w>
гол ов
ст ь</w>
ел а</w>
ни я</w>
ю т</w>
ни чего</w>
ва с</w>
к ры
ц а</w>
б ес
са мо
перед </w>
с ол
ов а
сл ы
ко го</w>
ва ть</w>
ча с</w>
то л
г де</w>
с дел
мож ет</w>
сл и</w>
это т</w>
себ е</w>
ал ась</w>
ва м</w>
об ра
у лы
ро д
г а</w>
ка ж
гол о
уж </w>
нико ла
г и</w>
пр е
вши сь</w>
л у
ени и</w>
щ а
м ер
в ест
челове к</w>
п ы
ско лько</w>
раз </w>
по тому</w>
ту т</w>
ски й</w>
в е</w>
во й
п е
в у
кня ж
ны ми</w>
ж из
i </w>
r </w>
с прос
франц уз
м о</w>
к ов
са м</w>
хо ро
ду м
к рас
ал е
буд ь</w>
нул ся</w>
ен ь
ст ро
с он
ми ну
р ед
ско ль
с ы
ю щ
e n
вед ь</w>
в ст
н я</w>
e s</w>
у т
ност ь</w>
мо ск
пр от
до м</w>
да р
да в
ко е</w>
г ро
в ес
я с
в ел
ната ша</w>
д ов
ж но</w>
ни х</w>
сказ ала</w>
ни будь</w>
еш ь</w>
ка за
которы е</w>
ш е
ник ов</w>
все х</w>
к ру
д ц
пр од
сл ед
в е
ы й</w>
ва р
п ис
с о</w>
ени ем</w>
о жи
ер а</w>
то р
которы й</w>
к то</w>
сл а
андре й</w>
ст и
ил ись</w>
буд то</w>
по з
посл е</w>
ка ми</w>
к ре
буд ет</w>
а х</w>
и в
a </w>
ка я</w>
ком на
пр и</w>
ш ь</w>
э ти
од ин</w>
ю щи
мо й</w>
д вер
во р
сов ер
во л
ит ься</w>
з н
сту п
ско го</w>
д ви
ска за
пр еж
х а
на до</w>
б ез</w>
с част
ж ал
т я
и я</w>
б ра
ра в
лиц о</w>
ра сколь
l e</w>
ки м</w>
ки й</w>
хоро ш
ел ь</w>
гла за</w>
о соб
пет ров
ко не
та м</w>
б ла
вз гля
о ф
м е</w>
мол од
б и
ил ось</w>
q u
до ро
пол ож
б </w>
дел о</w>
сво ей</w>
ма н
по ня
по том</w>
ств о</w>
улы б
б ез
я т</w>
об щ
ш ла</w>
ки е</w>
ст р
м у
ла сь</w>
r e</w>
е сли</w>
a i
оф иц
то й</w>
при ят
это м</w>
ч ал</w>
л ся</w>
d e</w>
не м</w>
б еж
совер ш
ч </w>
мо г</w>
посл ед
д об
ы х</w>
га р
е в</w>
сл ов
ы м</w>
го су
пу ст
тель но</w>
прод ол
я х</w>
то гда</w>
l </w>
и и</w>
г ру
из вест
на пол
по р
бол ее</w>
м ил
ру с
б е
ш и</w>
б ер
д и</w>
a n
м ал
де й
ре ш
мо г
э ти</w>
слы ш
сол да
ст ал</w>
по до
м еж
ств ен
зам ет
ско й</w>
к ра
ни ц
м е
ил о</w>
ива нов
госу дар
ы е</w>
р е</w>
и в</w>
ду ма
ж ал</w>
итель но</w>
я в
не сколько</w>
поко й
то т</w>
все гда</w>
м уж
ж </w>
ни й</w>
чувств ов
е м
дел а</w>
пр я
ни к</w>
ж д
б ор
т ел
об </w>
сво ю</w>
чер ез</w>
ени й</w>
теб е</w>
мож но</w>
ол ь
то же</w>
ех ал</w>
к ов</w>
отв ет
ка х</w>
напол е
д я</w>
б ро
ч ь</w>
з ы
ту з
спрос ил</w>
т р
т ру
та н
o n
мар гар
меж ду</w>
я ми</w>
ку да</w>
вы й</w>
об раз
ш ка</w>
см е
с а</w>
ро м</w>
нул а</w>
ден ь</w>
друго й</w>
л ов
м ного</w>
оста нов
про ст
каз алось</w>
сказа ть</w>
пр о</w>
т ся</w>
в еч
вы раж
никола й</w>
под ня
ло ша
n e</w>
княж на</w>
п л
й те</w>
то р</w>
ра я</w>
з </w>
г от
ест в
ств а</w>
ка кой</w>
люд ей</w>
расколь ников</w>
сво его</w>
гла за
стор он
г е</w>
каз ы
да ть</w>
ни и</w>
с пра
став ля
д ел</w>
боль ше</w>
с по
ку туз
ру ку</w>
сон я</w>
ски е</w>
г лу
но ю</w>
ou s</w>
с ем</w>
вши й</w>
мест е</w>
на д</w>
л он
ша я</w>
к ро
не му</w>
челове ка</w>
отв еч
ж у</w>
к нул</w>
са мы
рост ов</w>
дей стви
маргар ит
но му</w>
л еж
и стор
e u
ки х</w>
ск их</w>
к ров
c h
л уч
по в
г ен
об ъ
ин ы</w>
говор ить</w>
ба за
сл ова</w>
ш ей</w>
д ва</w>
хорош о</w>
ка р
х ва
мы сл
сов сем</w>
од но</w>
голов у</w>
вс его</w>
т ри
со м</w>
мар ья</w>
пр ов
по нима
петров ич</w>
д ор
ит ся</w>
я н
ал а
ти х
мен но</w>
ш у</w>
вз я
вст ре
