{
 "<pad>": 0,
 "<unk>": 1,
 "<bos>": 2,
 "<eos>": 3,
 "\u0007": 4,
 "!": 5,
 "\"": 6,
 "'": 7,
 "(": 8,
 ")": 9,
 "*": 10,
 ",": 11,
 "-": 12,
 ".": 13,
 "0": 14,
 "1": 15,
 "2": 16,
 "3": 17,
 "4": 18,
 "5": 19,
 "6": 20,
 "7": 21,
 "8": 22,
 "9": 23,
 ":": 24,
 ";": 25,
 "<": 26,
 "</w>": 27,
 "=": 28,
 ">": 29,
 "?": 30,
 "a": 31,
 "b": 32,
 "c": 33,
 "d": 34,
 "e": 35,
 "f": 36,
 "g": 37,
 "h": 38,
 "i": 39,
 "j": 40,
 "k": 41,
 "l": 42,
 "m": 43,
 "n": 44,
 "o": 45,
 "p": 46,
 "q": 47,
 "r": 48,
 "s": 49,
 "t": 50,
 "u": 51,
 "v": 52,
 "w": 53,
 "x": 54,
 "y": 55,
 "z": 56,
 "«": 57,
 "°": 58,
 "»": 59,
 "ß": 60,
 "à": 61,
 "â": 62,
 "ä": 63,
 "ç": 64,
 "è": 65,
 "é": 66,
 "ê": 67,
 "ë": 68,
 "î": 69,
 "ï": 70,
 "ô": 71,
 "ö": 72,
 "ù": 73,
 "û": 74,
 "ü": 75,
 "œ": 76,
 "́": 77,
 "а": 78,
 "б": 79,
 "в": 80,
 "г": 81,
 "д": 82,
 "е": 83,
 "ж": 84,
 "з": 85,
 "и": 86,
 "й": 87,
 "к": 88,
 "л": 89,
 "м": 90,
 "н": 91,
 "о": 92,
 "п": 93,
 "р": 94,
 "с": 95,
 "т": 96,
 "у": 97,
 "ф": 98,
 "х": 99,
 "ц": 100,
 "ч": 101,
 "ш": 102,
 "щ": 103,
 "ъ": 104,
 "ы": 105,
 "ь": 106,
 "э": 107,
 "ю": 108,
 "я": 109,
 "ё": 110,
 "–": 111,
 "—": 112,
 "“": 113,
 "„": 114,
 "…": 115,
 ",</w>": 116,
 "о</w>": 117,
 "и</w>": 118,
 "е</w>": 119,
 "а</w>": 120,
 ".</w>": 121,
 "я</w>": 122,
 "ь</w>": 123,
 "ст": 124,
 "ал": 125,
 "по": 126,
 "й</w>": 127,
 "м</w>": 128,
 "ов": 129,
 "ен": 130,
 "-</w>": 131,
 "ра": 132,
 "у</w>": 133,
 "ко": 134,
 "то</w>": 135,
 "ер": 136,
 "то": 137,
 "ел": 138,
 "пр": 139,
 "ка": 140,
 "он": 141,
 "в</w>": 142,
 "ил": 143,
 "т</w>": 144,
 "на": 145,
 "го</w>": 146,
 "к</w>": 147,
 "ы</w>": 148,
 "во": 149,
 "не": 150,
 "но</w>": 151,
 "ни": 152,
 "не</w>": 153,
 "ть</w>": 154,
 "но": 155,
 "на</w>": 156,
 "ро": 157,
 "х</w>": 158,
 "ал</w>": 159,
 "с</w>": 160,
 "ол": 161,
 "за": 162,
 "что</w>": 163,
 "ся</w>": 164,
 "ю</w>": 165,
 "от": 166,
 "он</w>": 167,
 "сь</w>": 168,
 "ва": 169,
 "бы": 170,
 "та": 171,
 "ед": 172,
 "од": 173,
 "сл": 174,
 "об": 175,
 "ны": 176,
 "ру": 177,
 "его</w>": 178,
 "ре": 179,
 "ви": 180,
 "ор": 181,
 "вс": 182,
 "ла": 183,
 "ет": 184,
 "мо": 185,
 "ени": 186,
 "при": 187,
 "был": 188,
 "ма": 189,
 "да</w>": 190,
 "ну": 191,
 "ми</w>": 192,
 "да": 193,
 "му</w>": 194,
 "!</w>": 195,
 "про": 196,
 "ил</w>": 197,
 "же</w>": 198,
 "ем</w>": 199,
 "из": 200,
 "вы": 201,
 "ест": 202,
 "до": 203,
 "как</w>": 204,
 "ли": 205,
 "ск": 206,
 "?</w>": 207,
 "пер": 208,
 "ит": 209,
 "раз": 210,
 "ет</w>": 211,
 "ска": 212,
 "ши": 213,
 "ча": 214,
 "ня": 215,
 "ста": 216,
 "ов</w>": 217,
 "под": 218,
 "ей</w>": 219,
 "ль": 220,
 "са": 221,
 "ин": 222,
 "ко</w>": 223,
 "ел</w>": 224,
 "уд": 225,
 "ри": 226,
 "'</w>": 227,
 "ала</w>": 228,
 "го": 229,
 "–</w>": 230,
 "ско": 231,
 "сво": 232,
 "ры": 233,
 "гов": 234,
 "e</w>": 235,
 "она</w>": 236,
 "кото": 237,
 "ез": 238,
 "это</w>": 239,
 "те": 240,
 "ка</w>": 241,
 "пол": 242,
 "со": 243,
 "вер": 244,
 "говор": 245,
 "ее</w>": 246,
 "ель": 247,
 "бы</w>": 248,
 "ду": 249,
 "за</w>": 250,
 "ля": 251,
 "се": 252,
 ";</w>": 253,
 "дел": 254,
 "ти": 255,
 "ки</w>": 256,
 "ств": 257,
 "см": 258,
 "па": 259,
 "еж": 260,
 "мен": 261,
 "ми": 262,
 "сказ": 263,
 "дру": 264,
 "ки": 265,
 "г</w>": 266,
 "так</w>": 267,
 "ему</w>": 268,
 "нов": 269,
 "чи": 270,
 "было</w>": 271,
 "али</w>": 272,
 "зна": 273,
 "гда</w>": 274,
 "ан": 275,
 "ес": 276,
 ":</w>": 277,
 "все</w>": 278,
 "это": 279,
 "лько</w>": 280,
 "лю": 281,
 "уж": 282,
 "ку": 283,
 "по</w>": 284,
 "нул": 285,
 "рас": 286,
 "ной</w>": 287,
 "сто": 288,
 "ход": 289,
 "вид": 290,
 "буд": 291,
 "ный</w>": 292,
 "вы</w>": 293,
 "га": 294,
 "ты</w>": 295,
 "их</w>": 296,
 "из</w>": 297,
 "ли</w>": 298,
 "ло": 299,
 "ить</w>": 300,
 "кня": 301,
 "ба": 302,
 "бол": 303,
 "пу": 304,
 "или</w>": 305,
 "бо": 306,
 "ещ": 307,
 "ша": 308,
 "хо": 309,
 "вши": 310,
 "ту": 311,
 "s</w>": 312,
 "еч": 313,
 "ку</w>": 314,
 "ни</w>": 315,
 "от</w>": 316,
 "ного</w>": 317,
 "ься</w>": 318,
 "де": 319,
 "гла": 320,
 "гол": 321,
 "ер</w>": 322,
 "пра": 323,
 "си": 324,
 "ила</w>": 325,
 "ис": 326,
 "только</w>": 327,
 "ение</w>": 328,
 "ност": 329,
 "ран": 330,
 "ров": 331,
 "сказал</w>": 332,
 "был</w>": 333,
 "ился</w>": 334,
 "кой</w>": 335,
 "ения</w>": 336,
 "ти</w>": 337,
 "том</w>": 338,
 "жи": 339,
 "су": 340,
 "во</w>": 341,
 "себ": 342,
 "пь": 343,
 "ди": 344,
 "ным</w>": 345,
 "ось</w>": 346,
 "до</w>": 347,
 "те</w>": 348,
 "ать</w>": 349,
 "д</w>": 350,
 "которы": 351,
 "ась</w>": 352,
 "гра": 353,
 "вз": 354,
 "ну</w>": 355,
 "ное</w>": 356,
 "мол": 357,
 "елов": 358,
 "когда</w>": 359,
 "ись</w>": 360,
 "лиц": 361,
 "пред": 362,
 "ле": 363,
 "ят": 364,
 "мы": 365,
 "ич": 366,
 "еще</w>": 367,
 "ные</w>": 368,
 "ла</w>": 369,
 "р</w>": 370,
 "аль": 371,
 "ался</w>": 372,
 "гля": 373,
 "жен": 374,
 "соб": 375,
 "щи": 376,
 "мож": 377,
 "чу": 378,
 "ски": 379,
 "де</w>": 380,
 "ясь</w>": 381,
 "сов": 382,
 "ом</w>": 383,
 "посл": 384,
 "каз": 385,
 "еш": 386,
 "чего</w>": 387,
 "княз": 388,
 "ля</w>": 389,
 "ар": 390,
 "ше</w>": 391,
 "лен": 392,
 "чер": 393,
 "воз": 394,
 "чем</w>": 395,
 "ой</w>": 396,
 "ря": 397,
 "ин</w>": 398,
 "ев": 399,
 "челов": 400,
 "та</w>": 401,
 "им": 402,
 "ту</w>": 403,
 "чен": 404,
 "дол": 405,
 "что": 406,
 "которо": 407,
 "ных</w>": 408,
 "хот": 409,
 "ум": 410,
 "него</w>": 411,
 "шел</w>": 412,
 "мар": 413,
 "л</w>": 414,
 "прос": 415,
 "тепер": 416,
 "ели</w>": 417,
 "смот": 418,
 "ять</w>": 419,
 "сил": 420,
 "уже</w>": 421,
 "ра</w>": 422,
 "нет</w>": 423,
 "теперь</w>": 424,
 "пет": 425,
 "уч": 426,
 "того</w>": 427,
 "мне</w>": 428,
 "ива": 429,
 "н</w>": 430,
 "боль": 431,
 "все": 432,
 "ны</w>": 433,
 "св": 434,
 "челове": 435,
 "для</w>": 436,
 "перед": 437,
 "t</w>": 438,
 "ке</w>": 439,
 "нул</w>": 440,
 "ты": 441,
 "ться</w>": 442,
 "раж": 443,
 "став": 444,
 "вот</w>": 445,
 "нее</w>": 446,
 "ех": 447,
 "отв": 448,
 "ова</w>": 449,
 "ется</w>": 450,
 "енно</w>": 451,
 "ком</w>": 452,
 "ная</w>": 453,
 "ез</w>": 454,
 "стоя": 455,
 "уб": 456,
 "пи": 457,
 "вре": 458,
 "друг</w>": 459,
 "тер": 460,
 "ней</w>": 461,
 "ва</w>": 462,
 "вед": 463,
 "лы": 464,
 "они</w>": 465,
 "дре": 466,
 "ья</w>": 467,
 "кри": 468,
 "ью</w>": 469,
 "им</w>": 470,
 "ит</w>": 471,
 "ды": 472,
 "меня</w>": 473,
 "вал</w>": 474,
 "быть</w>": 475,
 "ду</w>": 476,
 "ник": 477,
 "ую</w>": 478,
 "итель": 479,
 "чув": 480,
 "стор": 481,
 "кон": 482,
 "люб": 483,
 "слу": 484,
 "част": 485,
 "себя</w>": 486,
 "ou": 487,
 "тому</w>": 488,
 "уз": 489,
 "ите</w>": 490,
 "ден": 491,
 "сту": 492,
 "смотр": 493,
 "ало</w>": 494,
 "сер": 495,
 "говорил</w>": 496,
 "ло</w>": 497,
 "была</w>": 498,
 "нико": 499,
 "ша</w>": 500,
 "ете</w>": 501,
 "андре": 502,
 "чтобы</w>": 503,
 "ном</w>": 504,
 "тель": 505,
 "оп": 506,
 "пьер</w>": 507,
 "люд": 508,
 "ната": 509,
 "ние</w>": 510,
 "ц</w>": 511,
 "есть</w>": 512,
 "мест": 513,
 "вая</w>": 514,
 "стви": 515,
 "ма</w>": 516,
 "алось</w>": 517,
 "жа": 518,
 "n</w>": 519,
 "нима": 520,
 "князь</w>": 521,
 "ё</w>": 522,
 "граф": 523,
 "нач": 524,
 "бу": 525,
 "мы</w>": 526,
 "пере": 527,
 "вш": 528,
 "всё</w>": 529,
 "год": 530,
 "мя</w>": 531,
 "сп": 532,
 "чувств": 533,
 "пла": 534,
 "стра": 535,
 "прав": 536,
 "вдруг</w>": 537,
 "тре": 538,
 "этого</w>": 539,
 "были</w>": 540,
 "ались</w>": 541,
 "рост": 542,
 "иц": 543,
 "очен": 544,
 "пом": 545,
 "ним</w>": 546,
 "жел": 547,
 "очень</w>": 548,
 "гу": 549,
 "поч": 550,
 "дер": 551,
 "ком": 552,
 "даже</w>": 553,
 "ранц": 554,
 "че": 555,
 "ности</w>": 556,
 "время</w>": 557,
 ")</w>": 558,
 "ную</w>": 559,
 "опять</w>": 560,
 "зам": 561,
 "поко": 562,
 "под</w>": 563,
 "гор": 564,
 "ич</w>": 565,
 "стол": 566,
 "тем</w>": 567,
 "бл": 568,
 "гу</w>": 569,
 "франц": 570,
 "теб": 571,
 "чно</w>": 572,
 "ен</w>": 573,
 "сти</w>": 574,
 "ож": 575,
 "ги": 576,
 "(</w>": 577,
 "оста": 578,
 "илась</w>": 579,
 "друго": 580,
 "ье</w>": 581,
 "голов": 582,
 "сть</w>": 583,
 "ела</w>": 584,
 "ния</w>": 585,
 "ют</w>": 586,
 "ничего</w>": 587,
 "вас</w>": 588,
 "кры": 589,
 "ца</w>": 590,
 "бес": 591,
 "само": 592,
 "перед</w>": 593,
 "сол": 594,
 "ова": 595,
 "слы": 596,
 "кого</w>": 597,
 "вать</w>": 598,
 "час</w>": 599,
 "тол": 600,
 "где</w>": 601,
 "сдел": 602,
 "может</w>": 603,
 "сли</w>": 604,
 "этот</w>": 605,
 "себе</w>": 606,
 "алась</w>": 607,
 "вам</w>": 608,
 "обра": 609,
 "улы": 610,
 "род": 611,
 "га</w>": 612,
 "каж": 613,
 "голо": 614,
 "уж</w>": 615,
 "никола": 616,
 "ги</w>": 617,
 "пре": 618,
 "вшись</w>": 619,
 "лу": 620,
 "ении</w>": 621,
 "ща": 622,
 "мер": 623,
 "вест": 624,
 "человек</w>": 625,
 "пы": 626,
 "сколько</w>": 627,
 "раз</w>": 628,
 "потому</w>": 629,
 "тут</w>": 630,
 "ский</w>": 631,
 "ве</w>": 632,
 "вой": 633,
 "пе": 634,
 "ву": 635,
 "княж": 636,
 "ными</w>": 637,
 "жиз": 638,
 "i</w>": 639,
 "r</w>": 640,
 "спрос": 641,
 "француз": 642,
 "мо</w>": 643,
 "ков": 644,
 "сам</w>": 645,
 "хоро": 646,
 "дум": 647,
 "крас": 648,
 "але": 649,
 "будь</w>": 650,
 "нулся</w>": 651,
 "ень": 652,
 "стро": 653,
 "сон": 654,
 "мину": 655,
 "ред": 656,
 "сколь": 657,
 "сы": 658,
 "ющ": 659,
 "en": 660,
 "ведь</w>": 661,
 "вст": 662,
 "ня</w>": 663,
 "es</w>": 664,
 "ут": 665,
 "ность</w>": 666,
 "моск": 667,
 "прот": 668,
 "дом</w>": 669,
 "дар": 670,
 "дав": 671,
 "кое</w>": 672,
 "гро": 673,
 "вес": 674,
 "яс": 675,
 "вел": 676,
 "наташа</w>": 677,
 "дов": 678,
 "жно</w>": 679,
 "них</w>": 680,
 "сказала</w>": 681,
 "нибудь</w>": 682,
 "ешь</w>": 683,
 "каза": 684,
 "которые</w>": 685,
 "ше": 686,
 "ников</w>": 687,
 "всех</w>": 688,
 "кру": 689,
 "дц": 690,
 "прод": 691,
 "след": 692,
 "ве": 693,
 "ый</w>": 694,
 "вар": 695,
 "пис": 696,
 "со</w>": 697,
 "ением</w>": 698,
 "ожи": 699,
 "ера</w>": 700,
 "тор": 701,
 "который</w>": 702,
 "кто</w>": 703,
 "сла": 704,
 "андрей</w>": 705,
 "сти": 706,
 "ились</w>": 707,
 "будто</w>": 708,
 "поз": 709,
 "после</w>": 710,
 "ками</w>": 711,
 "кре": 712,
 "будет</w>": 713,
 "ах</w>": 714,
 "ив": 715,
 "a</w>": 716,
 "кая</w>": 717,
 "комна": 718,
 "при</w>": 719,
 "шь</w>": 720,
 "эти": 721,
 "один</w>": 722,
 "ющи": 723,
 "мой</w>": 724,
 "двер": 725,
 "вор": 726,
 "совер": 727,
 "вол": 728,
 "иться</w>": 729,
 "зн": 730,
 "ступ": 731,
 "ского</w>": 732,
 "дви": 733,
 "сказа": 734,
 "преж": 735,
 "ха": 736,
 "надо</w>": 737,
 "без</w>": 738,
 "счаст": 739,
 "жал": 740,
 "тя": 741,
 "ия</w>": 742,
 "бра": 743,
 "рав": 744,
 "лицо</w>": 745,
 "расколь": 746,
 "le</w>": 747,
 "кий</w>": 748,
 "ким</w>": 749,
 "хорош": 750,
 "ель</w>": 751,
 "глаза</w>": 752,
 "особ": 753,
 "петров": 754,
 "коне": 755,
 "там</w>": 756,
 "бла": 757,
 "взгля": 758,
 "оф": 759,
 "ме</w>": 760,
 "молод": 761,
 "би": 762,
 "илось</w>": 763,
 "qu": 764,
 "доро": 765,
 "полож": 766,
 "б</w>": 767,
 "дело</w>": 768,
 "своей</w>": 769,
 "ман": 770,
 "поня": 771,
 "потом</w>": 772,
 "ство</w>": 773,
 "улыб": 774,
 "без": 775,
 "ят</w>": 776,
 "общ": 777,
 "шла</w>": 778,
 "кие</w>": 779,
 "стр": 780,
 "му": 781,
 "лась</w>": 782,
 "re</w>": 783,
 "если</w>": 784,
 "ai": 785,
 "офиц": 786,
 "той</w>": 787,
 "прият": 788,
 "этом</w>": 789,
 "чал</w>": 790,
 "лся</w>": 791,
 "de</w>": 792,
 "нем</w>": 793,
 "беж": 794,
 "соверш": 795,
 "ч</w>": 796,
 "мог</w>": 797,
 "послед": 798,
 "доб": 799,
 "ых</w>": 800,
 "гар": 801,
 "ев</w>": 802,
 "слов": 803,
 "ым</w>": 804,
 "госу": 805,
 "пуст": 806,
 "тельно</w>": 807,
 "продол": 808,
 "ях</w>": 809,
 "тогда</w>": 810,
 "l</w>": 811,
 "ии</w>": 812,
 "гру": 813,
 "извест": 814,
 "напол": 815,
 "пор": 816,
 "более</w>": 817,
 "мил": 818,
 "рус": 819,
 "бе": 820,
 "ши</w>": 821,
 "бер": 822,
 "ди</w>": 823,
 "an": 824,
 "мал": 825,
 "дей": 826,
 "реш": 827,
 "мог": 828,
 "эти</w>": 829,
 "слыш": 830,
 "солда": 831,
 "стал</w>": 832,
 "подо": 833,
 "меж": 834,
 "ствен": 835,
 "замет": 836,
 "ской</w>": 837,
 "кра": 838,
 "ниц": 839,
 "ме": 840,
 "ило</w>": 841,
 "иванов": 842,
 "государ": 843,
 "ые</w>": 844,
 "ре</w>": 845,
 "ив</w>": 846,
 "дума": 847,
 "жал</w>": 848,
 "ительно</w>": 849,
 "яв": 850,
 "несколько</w>": 851,
 "покой": 852,
 "тот</w>": 853,
 "всегда</w>": 854,
 "муж": 855,
 "ж</w>": 856,
 "ний</w>": 857,
 "чувствов": 858,
 "ем": 859,
 "дела</w>": 860,
 "пря": 861,
 "ник</w>": 862,
 "жд": 863,
 "бор": 864,
 "тел": 865,
 "об</w>": 866,
 "свою</w>": 867,
 "через</w>": 868,
 "ений</w>": 869,
 "тебе</w>": 870,
 "можно</w>": 871,
 "оль": 872,
 "тоже</w>": 873,
 "ехал</w>": 874,
 "ков</w>": 875,
 "ответ": 876,
 "ках</w>": 877,
 "наполе": 878,
 "дя</w>": 879,
 "бро": 880,
 "чь</w>": 881,
 "зы": 882,
 "туз": 883,
 "спросил</w>": 884,
 "тр": 885,
 "тру": 886,
 "тан": 887,
 "on": 888,
 "маргар": 889,
 "между</w>": 890,
 "ями</w>": 891,
 "куда</w>": 892,
 "вый</w>": 893,
 "образ": 894,
 "шка</w>": 895,
 "сме": 896,
 "са</w>": 897,
 "ром</w>": 898,
 "нула</w>": 899,
 "день</w>": 900,
 "другой</w>": 901,
 "лов": 902,
 "много</w>": 903,
 "останов": 904,
 "прост": 905,
 "казалось</w>": 906,
 "сказать</w>": 907,
 "про</w>": 908,
 "тся</w>": 909,
 "веч": 910,
 "выраж": 911,
 "николай</w>": 912,
 "подня": 913,
 "лоша": 914,
 "ne</w>": 915,
 "княжна</w>": 916,
 "пл": 917,
 "йте</w>": 918,
 "тор</w>": 919,
 "рая</w>": 920,
 "з</w>": 921,
 "гот": 922,
 "еств": 923,
 "ства</w>": 924,
 "какой</w>": 925,
 "людей</w>": 926,
 "раскольников</w>": 927,
 "своего</w>": 928,
 "глаза": 929,
 "сторон": 930,
 "ге</w>": 931,
 "казы": 932,
 "дать</w>": 933,
 "нии</w>": 934,
 "спра": 935,
 "ставля": 936,
 "дел</w>": 937,
 "больше</w>": 938,
 "спо": 939,
 "кутуз": 940,
 "руку</w>": 941,
 "соня</w>": 942,
 "ские</w>": 943,
 "глу": 944,
 "ною</w>": 945,
 "ous</w>": 946,
 "сем</w>": 947,
 "вший</w>": 948,
 "месте</w>": 949,
 "над</w>": 950,
 "лон": 951,
 "шая</w>": 952,
 "кро": 953,
 "нему</w>": 954,
 "человека</w>": 955,
 "отвеч": 956,
 "жу</w>": 957,
 "кнул</w>": 958,
 "самы": 959,
 "ростов</w>": 960,
 "действи": 961,
 "маргарит": 962,
 "ному</w>": 963,
 "леж": 964,
 "истор": 965,
 "eu": 966,
 "ких</w>": 967,
 "ских</w>": 968,
 "кров": 969,
 "ch": 970,
 "луч": 971,
 "пов": 972,
 "ген": 973,
 "объ": 974,
 "ины</w>": 975,
 "говорить</w>": 976,
 "база": 977,
 "слова</w>": 978,
 "шей</w>": 979,
 "два</w>": 980,
 "хорошо</w>": 981,
 "кар": 982,
 "хва": 983,
 "мысл": 984,
 "совсем</w>": 985,
 "одно</w>": 986,
 "голову</w>": 987,
 "всего</w>": 988,
 "три": 989,
 "сом</w>": 990,
 "марья</w>": 991,
 "пров": 992,
 "понима": 993,
 "петрович</w>": 994,
 "дор": 995,
 "ится</w>": 996,
 "ян": 997,
 "ала": 998,
 "тих": 999,
 "менно</w>": 1000,
 "шу</w>": 1001,
 "взя": 1002,
 "встре": 1003,
 "ri": 1004,
 "ха</w>": 1005,
 "шли</w>": 1006,
 "ров</w>": 1007,
 "сов</w>": 1008,
 "жизни</w>": 1009,
 "ним": 1010,
 "которой</w>": 1011,
 "on</w>": 1012,
 "дени": 1013,
 "хоч": 1014,
 "еп": 1015,
 "вали</w>": 1016,
 "er": 1017,
 "вом</w>": 1018,
 "думал</w>": 1019,
 "лись</w>": 1020,
 "эту</w>": 1021,
 "es": 1022,
 "еть</w>": 1023,
 "этой</w>": 1024,
 "видел</w>": 1025,
 "видно</w>": 1026,
 "зав": 1027,
 "произ": 1028,
 "стран": 1029,
 "кла": 1030,
 "тебя</w>": 1031,
 "ть": 1032,
 "ча</w>": 1033,
 "смотрел</w>": 1034,
 "нен": 1035,
 "воль": 1036,
 "дан": 1037,
 "ужа": 1038,
 "зде": 1039,
 "ежели</w>": 1040,
 "жела": 1041,
 "совершенно</w>": 1042,
 "ски</w>": 1043,
 "сей": 1044,
 "руки</w>": 1045,
 "знаю</w>": 1046,
 "случа": 1047,
 "ий</w>": 1048,
 "бел": 1049,
 "ос": 1050,
 "ост": 1051,
 "никогда</w>": 1052,
 "пьера</w>": 1053,
 "знал</w>": 1054,
 "ды</w>": 1055,
 "граф</w>": 1056,
 "конец</w>": 1057,
 "ого</w>": 1058,
 "говорила</w>": 1059,
 "больш": 1060,
 "ру</w>": 1061,
 "вой</w>": 1062,
 "сви": 1063,
 "дес": 1064,
 "глав": 1065,
 "ад": 1066,
 "уми": 1067,
 "тот": 1068,
 "арми": 1069,
 "которое</w>": 1070,
 "минуту</w>": 1071,
 "тотчас</w>": 1072,
 "ению</w>": 1073,
 "пись": 1074,
 "воро": 1075,
 "арка": 1076,
 "которого</w>": 1077,
 "вся": 1078,
 "наход": 1079,
 "горо": 1080,
 "эта</w>": 1081,
 "нь</w>": 1082,
 "весел": 1083,
 "дет": 1084,
 "ину</w>": 1085,
 "вра": 1086,
 "нам</w>": 1087,
 "люди</w>": 1088,
 "чет": 1089,
 "сейчас</w>": 1090,
 "зв": 1091,
 "аркади": 1092,
 "ле</w>": 1093,
 "хотел</w>": 1094,
 "васил": 1095,
 "вели": 1096,
 "ска</w>": 1097,
 "всем</w>": 1098,
 "генер": 1099,
 "здесь</w>": 1100,
 "сан": 1101,
 "ами</w>": 1102,
 "радо": 1103,
 "точно</w>": 1104,
 "графин": 1105,
 "кричал</w>": 1106,
 "чи</w>": 1107,
 "разговор": 1108,
 "прежде</w>": 1109,
 "коман": 1110,
 "бед": 1111,
 "ника": 1112,
 "свои</w>": 1113,
 "суд": 1114,
 "пав": 1115,
 "pa": 1116,
 "йся</w>": 1117,
 "ст</w>": 1118,
 "лан": 1119,
 "князя</w>": 1120,
 "почти</w>": 1121,
 "вла": 1122,
 "обрат": 1123,
 "квар": 1124,
 "движ": 1125,
 "фи": 1126,
 "этих</w>": 1127,
 "лож": 1128,
 "ущ": 1129,
 "душ": 1130,
 "друг": 1131,
 "огля": 1132,
 "хотя</w>": 1133,
 "ина</w>": 1134,
 "ари": 1135,
 "бур": 1136,
 "ро</w>": 1137,
 "ся": 1138,
 "вал": 1139,
 "ям</w>": 1140,
 "лет": 1141,
 "ваясь</w>": 1142,
 "маргарита</w>": 1143,
 "цел": 1144,
 "ию</w>": 1145,
 "иче": 1146,
 "ок": 1147,
 "юсь</w>": 1148,
 "бли": 1149,
 "гом</w>": 1150,
 "зя</w>": 1151,
 "жен</w>": 1152,
 "пой": 1153,
 "обы": 1154,
 "свет": 1155,
 "свое</w>": 1156,
 "наконец</w>": 1157,
 "хол": 1158,
 "шед": 1159,
 "нель": 1160,
 "лю</w>": 1161,
 "сед": 1162,
 "вала</w>": 1163,
 "ид": 1164,
 "дво": 1165,
 "мно": 1166,
 "вает</w>": 1167,
 "зад</w>": 1168,
 "подум": 1169,
 "сраж": 1170,
 "нельзя</w>": 1171,
 "ох": 1172,
 "ших</w>": 1173,
 "рассказ": 1174,
 "своим</w>": 1175,
 "голос</w>": 1176,
 "сред": 1177,
 "против</w>": 1178,
 "отвечал</w>": 1179,
 "vous</w>": 1180,
 "шего</w>": 1181,
 "нув</w>": 1182,
 "кварти": 1183,
 "ус": 1184,
 "бав": 1185,
 "ог": 1186,
 "рез": 1187,
 "знач": 1188,
 "смотря</w>": 1189,
 "лошад": 1190,
 "стало</w>": 1191,
 "давно</w>": 1192,
 "нас</w>": 1193,
 "приня": 1194,
 "кура": 1195,
 "дал</w>": 1196,
 "гос": 1197,
 "остав": 1198,
 "базаров</w>": 1199,
 "нуть</w>": 1200,
 "малень": 1201,
 "дро": 1202,
 "иск": 1203,
 "ящ": 1204,
 "ста</w>": 1205,
 "ятель": 1206,
 "ею</w>": 1207,
 "бот": 1208,
 "рую</w>": 1209,
 "ою</w>": 1210,
 "бод": 1211,
 "служ": 1212,
 "ба</w>": 1213,
 "выход": 1214,
 "вместе</w>": 1215,
 "еча": 1216,
 "имо</w>": 1217,
 "времен": 1218,
 "чувствовал</w>": 1219,
 "глазами</w>": 1220,
 "бр": 1221,
 "еру</w>": 1222,
 "разд": 1223,
 "тора</w>": 1224,
 "ок</w>": 1225,
 "наро": 1226,
 "кую</w>": 1227,
 "зачем</w>": 1228,
 "вить</w>": 1229,
 "пар": 1230,
 "енный</w>": 1231,
 "помн": 1232,
 "au": 1233,
 "гром": 1234,
 "йти</w>": 1235,
 "мед": 1236,
 "обо": 1237,
 "ав": 1238,
 "сами</w>": 1239,
 "лег": 1240,
 "неприят": 1241,
 "силь": 1242,
 "et</w>": 1243,
 "me</w>": 1244,
 "одного</w>": 1245,
 "назад</w>": 1246,
 "ими</w>": 1247,
 "место</w>": 1248,
 "которая</w>": 1249,
 "«</w>": 1250,
 "»</w>": 1251,
 "дно</w>": 1252,
 "сущ": 1253,
 "алек": 1254,
 "спраши": 1255,
 "откры": 1256,
 "ие</w>": 1257,
 "че</w>": 1258,
 "ры</w>": 1259,
 "готов": 1260,
 "разуми": 1261,
 "стар": 1262,
 "страш": 1263,
 "om": 1264,
 "ут</w>": 1265,
 "над": 1266,
 "торо": 1267,
 "дерев": 1268,
 "чита": 1269,
 "господ": 1270,
 "разумих": 1271,
 "це</w>": 1272,
 "увид": 1273,
 "хоть</w>": 1274,
 "которых</w>": 1275,
 "одна</w>": 1276,
 "лица</w>": 1277,
 "la</w>": 1278,
 "свобод": 1279,
 "ш</w>": 1280,
 "вос": 1281,
 "ском</w>": 1282,
 "пас": 1283,
 "нужно</w>": 1284,
 "повер": 1285,
 "своих</w>": 1286,
 "кроме</w>": 1287,
 "чик</w>": 1288,
 "цы</w>": 1289,
 "лич": 1290,
 "вшие</w>": 1291,
 "вопро": 1292,
 "лен</w>": 1293,
 "удив": 1294,
 "иль": 1295,
 "смер": 1296,
 "усп": 1297,
 "пожал": 1298,
 "чтоб</w>": 1299,
 "ль</w>": 1300,
 "долго</w>": 1301,
 "дома</w>": 1302,
 "ая</w>": 1303,
 "ская</w>": 1304,
 "тех</w>": 1305,
 "почему</w>": 1306,
 "ответил</w>": 1307,
 "ву</w>": 1308,
 "лице</w>": 1309,
 "свой</w>": 1310,
 "особен": 1311,
 "que</w>": 1312,
 "нулась</w>": 1313,
 "чит": 1314,
 "er</w>": 1315,
 "ое</w>": 1316,
 "te</w>": 1317,
 "высо": 1318,
 "говорили</w>": 1319,
 "поря": 1320,
 "вших</w>": 1321,
 "прямо</w>": 1322,
 "три</w>": 1323,
 "долох": 1324,
 "вод": 1325,
 "зем": 1326,
 "внима": 1327,
 "испу": 1328,
 "ления</w>": 1329,
 "которую</w>": 1330,
 "дверь</w>": 1331,
 "ине</w>": 1332,
 "продолжал</w>": 1333,
 "мн": 1334,
 "ото": 1335,
 "вет": 1336,
 "твер": 1337,
 "чки</w>": 1338,
 "знать</w>": 1339,
 "кажется</w>": 1340,
 "счастли": 1341,
 "прибав": 1342,
 "ге": 1343,
 "ника</w>": 1344,
 "котором</w>": 1345,
 "кнов": 1346,
 "вался</w>": 1347,
 "ствие</w>": 1348,
 "вше": 1349,
 "фа": 1350,
 "лучше</w>": 1351,
 "подумал</w>": 1352,
 "z</w>": 1353,
 "всю</w>": 1354,
 "вперед</w>": 1355,
 "несмотря</w>": 1356,
 "вышел</w>": 1357,
 "сю": 1358,
 "бо</w>": 1359,
 "обед": 1360,
 "толп": 1361,
 "жизнь</w>": 1362,
 "низ": 1363,
 "увер": 1364,
 "весь</w>": 1365,
 "шло</w>": 1366,
 "особенно</w>": 1367,
 "яз": 1368,
 "ино": 1369,
 "пло": 1370,
 "пор</w>": 1371,
 "стоял</w>": 1372,
 "проговорил</w>": 1373,
 "зел": 1374,
 "скаж": 1375,
 "одной</w>": 1376,
 "аркадий</w>": 1377,
 "впро": 1378,
 "таки</w>": 1379,
 "ление</w>": 1380,
 "en</w>": 1381,
 "плат": 1382,
 "такое</w>": 1383,
 "тыся": 1384,
 "à</w>": 1385,
 "петер": 1386,
 "впрочем</w>": 1387,
 "начал</w>": 1388,
 "петербур": 1389,
 "ней": 1390,
 "обход": 1391,
 "такой</w>": 1392,
 "име": 1393,
 "ростов": 1394,
 "двор": 1395,
 "кутузов</w>": 1396,
 "объяс": 1397,
 "иш": 1398,
 "é</w>": 1399,
 "жест": 1400,
 "наполеон</w>": 1401,
 "скры": 1402,
 "полу": 1403,
 "пят": 1404,
 "санд": 1405,
 "em": 1406,
 "чуть</w>": 1407,
 "брос": 1408,
 "коро": 1409,
 "вами</w>": 1410,
 "овать</w>": 1411,
 "пошел</w>": 1412,
 "оче": 1413,
 "ez</w>": 1414,
 "рен": 1415,
 "тра": 1416,
 "лет</w>": 1417,
 "рый</w>": 1418,
 "ец</w>": 1419,
 "вшего</w>": 1420,
 "хват": 1421,
 "ший</w>": 1422,
 "ган": 1423,
 "долж": 1424,
 "могу</w>": 1425,
 "oi": 1426,
 "цен": 1427,
 "еся</w>": 1428,
 "анна</w>": 1429,
 "глядя</w>": 1430,
 "ливо</w>": 1431,
 "говорит</w>": 1432,
 "никто</w>": 1433,
 "тво": 1434,
 "дву": 1435,
 "est</w>": 1436,
 "важ": 1437,
 "знает</w>": 1438,
 "графиня</w>": 1439,
 "александ": 1440,
 "хе</w>": 1441,
 "иг": 1442,
 "сердц": 1443,
 "ишь</w>": 1444,
 "времени</w>": 1445,
 "собой</w>": 1446,
 "отно": 1447,
 "рома": 1448,
 "приход": 1449,
 "ехать</w>": 1450,
 "vi": 1451,
 "един": 1452,
 "интер": 1453,
 "блед": 1454,
 "мг": 1455,
 "ними</w>": 1456,
 "дела": 1457,
 "даль": 1458,
 "офицер</w>": 1459,
 "проб": 1460,
 "чка</w>": 1461,
 "шки</w>": 1462,
 "хом</w>": 1463,
 "первый</w>": 1464,
 "ыми</w>": 1465,
 "губ": 1466,
 "вся</w>": 1467,
 "слуша": 1468,
 "ются</w>": 1469,
 "сси": 1470,
 "сен": 1471,
 "лест": 1472,
 "смеш": 1473,
 "состоя": 1474,
 "гие</w>": 1475,
 "зву": 1476,
 "обыкнов": 1477,
 "зя": 1478,
 "ti": 1479,
 "зал": 1480,
 "ъез": 1481,
 "станов": 1482,
 "нова": 1483,
 "матер": 1484,
 "близ": 1485,
 "этим</w>": 1486,
 "именно</w>": 1487,
 "спокой": 1488,
 "di": 1489,
 "нием</w>": 1490,
 "шие</w>": 1491,
 "вещ": 1492,
 "пера": 1493,
 "тяжел": 1494,
 "lle</w>": 1495,
 "благо": 1496,
 "les</w>": 1497,
 "ужас": 1498,
 "импера": 1499,
 "кол": 1500,
 "стре": 1501,
 "шим</w>": 1502,
 "ским</w>": 1503,
 "вопрос": 1504,
 "спеш": 1505,
 "солдат</w>": 1506,
 "яза": 1507,
 "дет</w>": 1508,
 "пыт": 1509,
 "пожалу": 1510,
 "числ": 1511,
 "дцать</w>": 1512,
 "ялся</w>": 1513,
 "крикнул</w>": 1514,
 "голосом</w>": 1515,
 "ское</w>": 1516,
 "гая</w>": 1517,
 "какая</w>": 1518,
 "стари": 1519,
 "ce</w>": 1520,
 "испол": 1521,
 "могла</w>": 1522,
 "говари": 1523,
 "мгнов": 1524,
 "ностью</w>": 1525,
 "гл": 1526,
 "ила": 1527,
 "доволь": 1528,
 "ством</w>": 1529,
 "евна</w>": 1530,
 "конечно</w>": 1531,
 "вопрос</w>": 1532,
 "хозя": 1533,
 "d</w>": 1534,
 "мор": 1535,
 "дели</w>": 1536,
 "ютан": 1537,
 "действительно</w>": 1538,
 "адъ": 1539,
 "войска</w>": 1540,
 "адъютан": 1541,
 "зл": 1542,
 "око": 1543,
 "роб": 1544,
 "удов": 1545,
 "радост": 1546,
 "чу</w>": 1547,
 "гер": 1548,
 "имо": 1549,
 "согла": 1550,
 "писа": 1551,
 "треб": 1552,
 "ображ": 1553,
 "благод": 1554,
 "стро</w>": 1555,
 "денисов</w>": 1556,
 "док": 1557,
 "ящи": 1558,
 "необход": 1559,
 "скоре": 1560,
 "своем</w>": 1561,
 "василий</w>": 1562,
 "прест": 1563,
 "здор": 1564,
 "ур": 1565,
 "мать</w>": 1566,
 "кому</w>": 1567,
 "ество</w>": 1568,
 "ваться</w>": 1569,
 "одна": 1570,
 "мес": 1571,
 "сделать</w>": 1572,
 "шеп": 1573,
 "улыбкой</w>": 1574,
 "клон": 1575,
 "прокура": 1576,
 "ху</w>": 1577,
 "день": 1578,
 "знаете</w>": 1579,
 "государь</w>": 1580,
 "волан": 1581,
 "быстро</w>": 1582,
 "кор": 1583,
 "гами</w>": 1584,
 "право</w>": 1585,
 "тый</w>": 1586,
 "улыба": 1587,
 "рассказы": 1588,
 "оно</w>": 1589,
 "стала</w>": 1590,
 "свид": 1591,
 "мя": 1592,
 "ег": 1593,
 "мас": 1594,
 "гост": 1595,
 "сидел</w>": 1596,
 "должен</w>": 1597,
 "слиш": 1598,
 "слишком</w>": 1599,
 "ича</w>": 1600,
 "паль": 1601,
 "сама</w>": 1602,
 "представля": 1603,
 "очевидно</w>": 1604,
 "нить</w>": 1605,
 "привы": 1606,
 "держ": 1607,
 "ющий</w>": 1608,
 "si": 1609,
 "ван": 1610,
 "сест": 1611,
 "мит": 1612,
 "смотре": 1613,
 "помо": 1614,
 "делать</w>": 1615,
 "катер": 1616,
 "je</w>": 1617,
 "андрея</w>": 1618,
 "москве</w>": 1619,
 "продолж": 1620,
 "xx": 1621,
 "чера</w>": 1622,
 "разговор</w>": 1623,
 "видимо</w>": 1624,
 "сюда</w>": 1625,
 "заня": 1626,
 "клю": 1627,
 "вым</w>": 1628,
 "воло": 1629,
 "шев": 1630,
 "ваше</w>": 1631,
 "любов": 1632,
 "серд": 1633,
 "дра": 1634,
 "призна": 1635,
 "ером</w>": 1636,
 "ьи</w>": 1637,
 "перест": 1638,
 "иван</w>": 1639,
 "комнате</w>": 1640,
 "двери</w>": 1641,
 "видеть</w>": 1642,
 "интерес": 1643,
 "тен": 1644,
 "ьми</w>": 1645,
 "стали</w>": 1646,
 "кажды": 1647,
 "приказа": 1648,
 "подви": 1649,
 "мень": 1650,
 "степ": 1651,
 "ана": 1652,
 "мая</w>": 1653,
 "разве</w>": 1654,
 "тро": 1655,
 "собы": 1656,
 "заметил</w>": 1657,
 "ar": 1658,
 "ества</w>": 1659,
 "французов</w>": 1660,
 "дале": 1661,
 "стен": 1662,
 "тем": 1663,
 "дца": 1664,
 "комнаты</w>": 1665,
 "мысль</w>": 1666,
 "армии</w>": 1667,
 "разумихин</w>": 1668,
 "уп": 1669,
 "се</w>": 1670,
 "перво": 1671,
 "сдела": 1672,
 "двух</w>": 1673,
 "m</w>": 1674,
 "кою</w>": 1675,
 "пола": 1676,
 "расс": 1677,
 "ходил</w>": 1678,
 "бар": 1679,
 "коров": 1680,
 "сы</w>": 1681,
 "кал</w>": 1682,
 "недо": 1683,
 "чит</w>": 1684,
 "знако": 1685,
 "которым</w>": 1686,
 "пле": 1687,
 "получ": 1688,
 "чувство</w>": 1689,
 "обраща": 1690,
 "какие</w>": 1691,
 "реб": 1692,
 "работ": 1693,
 "ей": 1694,
 "ню</w>": 1695,
 "уда": 1696,
 "сем": 1697,
 "смы": 1698,
 "комнату</w>": 1699,
 "подошел</w>": 1700,
 "ци": 1701,
 "головой</w>": 1702,
 "прив": 1703,
 "стара": 1704,
 "ленно</w>": 1705,
 "начала</w>": 1706,
 "каби": 1707,
 "женщи": 1708,
 "разум": 1709,
 "стрел": 1710,
 "ьев</w>": 1711,
 "назы": 1712,
 "сты": 1713,
 "se</w>": 1714,
 "зр": 1715,
 "дой</w>": 1716,
 "ству": 1717,
 "тра</w>": 1718,
 "бума": 1719,
 "глаз</w>": 1720,
 "ествен": 1721,
 "пьеру</w>": 1722,
 "прил": 1723,
 "емы": 1724,
 "ночь</w>": 1725,
 "взял</w>": 1726,
 "событи": 1727,
 "мина": 1728,
 "созна": 1729,
 "стороны</w>": 1730,
 "тихо</w>": 1731,
 "ыш": 1732,
 "чай": 1733,
 "охот": 1734,
 "письмо</w>": 1735,
 "вчера</w>": 1736,
 "ясно</w>": 1737,
 "руками</w>": 1738,
 "других</w>": 1739,
 "воск": 1740,
 "стоит</w>": 1741,
 "какое</w>": 1742,
 "сердце</w>": 1743,
 "ви</w>": 1744,
 "шест": 1745,
 "полков": 1746,
 "остановился</w>": 1747,
 "иногда</w>": 1748,
 "есь</w>": 1749,
 "прич": 1750,
 "ител": 1751,
 "печ": 1752,
 "скую</w>": 1753,
 "направ": 1754,
 "нувшись</w>": 1755,
 "овал</w>": 1756,
 "сор": 1757,
 "верно</w>": 1758,
 "целов": 1759,
 "возмож": 1760,
 "миха": 1761,
 "послыш": 1762,
 "ню": 1763,
 "бал": 1764,
 "нею</w>": 1765,
 "чить</w>": 1766,
 "этому</w>": 1767,
 "сегод": 1768,
 "две</w>": 1769,
 "вен": 1770,
 "нер": 1771,
 "нами</w>": 1772,
 "дур": 1773,
 "отца</w>": 1774,
 "сделал</w>": 1775,
 "друга</w>": 1776,
 "дня</w>": 1777,
 "плен": 1778,
 "ьма</w>": 1779,
 "гости": 1780,
 "иванович</w>": 1781,
 "смысл": 1782,
 "иво": 1783,
 "гай": 1784,
 "сут": 1785,
 "человеч": 1786,
 "возвра": 1787,
 "прибавил</w>": 1788,
 "tr": 1789,
 "ову</w>": 1790,
 "зако": 1791,
 "бил</w>": 1792,
 "сел</w>": 1793,
 "измен": 1794,
 "слуш": 1795,
 "самом</w>": 1796,
 "мысли</w>": 1797,
 "следу": 1798,
 "таким</w>": 1799,
 "tre</w>": 1800,
 "li": 1801,
 "нал</w>": 1802,
 "уви": 1803,
 "чил</w>": 1804,
 "проис": 1805,
 "елось</w>": 1806,
 "лицом</w>": 1807,
 "ищ": 1808,
 "ист": 1809,
 "она": 1810,
 "своему</w>": 1811,
 "бой</w>": 1812,
 "рукой</w>": 1813,
 "обратился</w>": 1814,
 "своими</w>": 1815,
 "еви": 1816,
 "жда": 1817,
 "дли": 1818,
 "началь": 1819,
 "ело</w>": 1820,
 "выс": 1821,
 "туда</w>": 1822,
 "чку</w>": 1823,
 "вошел</w>": 1824,
 "должно</w>": 1825,
 "слово</w>": 1826,
 "отнош": 1827,
 "бу</w>": 1828,
 "ники</w>": 1829,
 "бог</w>": 1830,
 "казал</w>": 1831,
 "крич": 1832,
 "il</w>": 1833,
 "цу</w>": 1834,
 "мет": 1835,
 "мое</w>": 1836,
 "маль": 1837,
 "скоро</w>": 1838,
 "лестниц": 1839,
 "молча": 1840,
 "x</w>": 1841,
 "самое</w>": 1842,
 "просто</w>": 1843,
 "деньги</w>": 1844,
 "ще": 1845,
 "женщ": 1846,
 "другие</w>": 1847,
 "поспеш": 1848,
 "дая</w>": 1849,
 "болез": 1850,
 "москвы</w>": 1851,
 "вслед": 1852,
 "порфи": 1853,
 "зави": 1854,
 "мом</w>": 1855,
 "дох": 1856,
 "говорю</w>": 1857,
 "наде": 1858,
 "com": 1859,
 "оба</w>": 1860,
 "отчего</w>": 1861,
 "порфири": 1862,
 "маст": 1863,
 "овой</w>": 1864,
 "ловна</w>": 1865,
 "улыбаясь</w>": 1866,
 "весьма</w>": 1867,
 "мер</w>": 1868,
 "жить</w>": 1869,
 "серь": 1870,
 "правда</w>": 1871,
 "ais</w>": 1872,
 "собою</w>": 1873,
 "старый</w>": 1874,
 "шля": 1875,
 "бат": 1876,
 "потер": 1877,
 "ющего</w>": 1878,
 "однако</w>": 1879,
 "свидри": 1880,
 "свидригай": 1881,
 "мот": 1882,
 "кими</w>": 1883,
 "ехали</w>": 1884,
 "самого</w>": 1885,
 "каким</w>": 1886,
 "мужи": 1887,
 "am": 1888,
 "отец</w>": 1889,
 "гре": 1890,
 "спа": 1891,
 "предел": 1892,
 "положение</w>": 1893,
 "отвеча": 1894,
 "сегодня</w>": 1895,
 "ам</w>": 1896,
 "моя</w>": 1897,
 "мало</w>": 1898,
 "государя</w>": 1899,
 "долохов</w>": 1900,
 "ток</w>": 1901,
 "ск</w>": 1902,
 "зол": 1903,
 "хся</w>": 1904,
 "ько</w>": 1905,
 "приез": 1906,
 "убеж": 1907,
 "неожи": 1908,
 "раскольник": 1909,
 "бежал</w>": 1910,
 "молча</w>": 1911,
 "неожидан": 1912,
 "ух": 1913,
 "тами</w>": 1914,
 "поду": 1915,
 "случ": 1916,
 "такие</w>": 1917,
 "сражения</w>": 1918,
 "c</w>": 1919,
 "гал</w>": 1920,
 "спу": 1921,
 "ступа": 1922,
 "закры": 1923,
 "мимо</w>": 1924,
 "ent</w>": 1925,
 "брат</w>": 1926,
 "молодой</w>": 1927,
 "поро": 1928,
 "чин": 1929,
 "гося</w>": 1930,
 "тить</w>": 1931,
 "лось</w>": 1932,
 "енное</w>": 1933,
 "стью</w>": 1934,
 "прекрас": 1935,
 "холод": 1936,
 "жер": 1937,
 "ору": 1938,
 "шее</w>": 1939,
 "усил": 1940,
 "гуса": 1941,
 "пила": 1942,
 "кни": 1943,
 "жени": 1944,
 "чест": 1945,
 "блест": 1946,
 "выражение</w>": 1947,
 "повтор": 1948,
 "испуган": 1949,
 "завтра</w>": 1950,
 "or": 1951,
 "нос": 1952,
 "вых</w>": 1953,
 "пока</w>": 1954,
 "ивая</w>": 1955,
 "ожив": 1956,
 "юшка</w>": 1957,
 "росси": 1958,
 "старо": 1959,
 "шку</w>": 1960,
 "помни": 1961,
 "несчаст": 1962,
 "вые</w>": 1963,
 "стару": 1964,
 "бори": 1965,
 "хочу</w>": 1966,
 "довольно</w>": 1967,
 "серьез": 1968,
 "поль": 1969,
 "удер": 1970,
 "дали</w>": 1971,
 "переди</w>": 1972,
 "правля": 1973,
 "ивановна</w>": 1974,
 "огляды": 1975,
 "смотреть</w>": 1976,
 "хотелось</w>": 1977,
 "яд": 1978,
 "вли": 1979,
 "ально</w>": 1980,
 "еха": 1981,
 "года</w>": 1982,
 "печа": 1983,
 "круг</w>": 1984,
 "eur</w>": 1985,
 "бала": 1986,
 "др": 1987,
 "дон": 1988,
 "вин": 1989,
 "всей</w>": 1990,
 "семен": 1991,
 "чист": 1992,
 "буду</w>": 1993,
 "говорят</w>": 1994,
 "здоров": 1995,
 "меся": 1996,
 "мах": 1997,
 "деле</w>": 1998,
 "одну</w>": 1999,
 "думать</w>": 2000,
 "наполеона</w>": 2001,
 "немного</w>": 2002,
 "нимал</w>": 2003,
 "посмотрел</w>": 2004,
 "ьте</w>": 2005,
 "неизвест": 2006,
 "кнула</w>": 2007,
 "матри": 2008,
 "mon</w>": 2009,
 "москву</w>": 2010,
 "каждый</w>": 2011,
 "коровьев</w>": 2012,
 "нич": 2013,
 "подоб": 2014,
 "муч": 2015,
 "стояли</w>": 2016,
 "смотрела</w>": 2017,
 "непре": 2018,
 "крест": 2019,
 "солдаты</w>": 2020,
 "подле</w>": 2021,
 "удоволь": 2022,
 "скорее</w>": 2023,
 "испы": 2024,
 "слышал</w>": 2025,
 "плеч": 2026,
 "длин": 2027,
 "ек": 2028,
 "av": 2029,
 "пья": 2030,
 "енные</w>": 2031,
 "петя</w>": 2032,
 "графа</w>": 2033,
 "солн": 2034,
 "скажу</w>": 2035,
 "воланд</w>": 2036,
 "пан": 2037,
 "вход": 2038,
 "понял</w>": 2039,
 "неволь": 2040,
 "вшийся</w>": 2041,
 "дальше</w>": 2042,
 "около</w>": 2043,
 "определ": 2044,
 "бе</w>": 2045,
 "чет</w>": 2046,
 "еща": 2047,
 "дива": 2048,
 "настоя": 2049,
 "трево": 2050,
 "могли</w>": 2051,
 "мей": 2052,
 "денисов": 2053,
 "хозяй": 2054,
 "свидригайл": 2055,
 "ено</w>": 2056,
 "кан": 2057,
 "гон": 2058,
 "дания</w>": 2059,
 "круж": 2060,
 "доме</w>": 2061,
 "опас": 2062,
 "злоб": 2063,
 "u</w>": 2064,
 "тон": 2065,
 "неж": 2066,
 "гой</w>": 2067,
 "кур": 2068,
 "нрав": 2069,
 "самый</w>": 2070,
 "генерал</w>": 2071,
 "напротив</w>": 2072,
 "тороп": 2073,
 "дь</w>": 2074,
 "пост": 2075,
 "фор": 2076,
 "вну": 2077,
 "свер": 2078,
 "ег</w>": 2079,
 "ранен": 2080,
 "приехал</w>": 2081,
 "впереди</w>": 2082,
 "шу": 2083,
 "мел": 2084,
 "гляды": 2085,
 "това": 2086,
 "ющих</w>": 2087,
 "понять</w>": 2088,
 "нюю</w>": 2089,
 "два": 2090,
 "тай": 2091,
 "няя</w>": 2092,
 "през": 2093,
 "болкон": 2094,
 "ноги</w>": 2095,
 "воспо": 2096,
 "помнил</w>": 2097,
 "прокуратор</w>": 2098,
 "борис</w>": 2099,
 "п</w>": 2100,
 "хи</w>": 2101,
 "зов": 2102,
 "дот": 2103,
 "сад": 2104,
 "роди": 2105,
 "свете</w>": 2106,
 "думала</w>": 2107,
 "услов": 2108,
 "люблю</w>": 2109,
 "стрем": 2110,
 "слез": 2111,
 "енного</w>": 2112,
 "чувству": 2113,
 "читал</w>": 2114,
 "мра": 2115,
 "скор": 2116,
 "князю</w>": 2117,
 "ничто": 2118,
 "намер": 2119,
 "спросила</w>": 2120,
 "знаешь</w>": 2121,
 "дороге</w>": 2122,
 "четы": 2123,
 "ставить</w>": 2124,
 "pr": 2125,
 "кат": 2126,
 "енной</w>": 2127,
 "хло": 2128,
 "часто</w>": 2129,
 "язы": 2130,
 "голоса</w>": 2131,
 "казывая</w>": 2132,
 "медленно</w>": 2133,
 "хра": 2134,
 "шта": 2135,
 "леч": 2136,
 "добро": 2137,
 "руках</w>": 2138,
 "сторону</w>": 2139,
 "вольте</w>": 2140,
 "лошадь</w>": 2141,
 "вне": 2142,
 "мся</w>": 2143,
 "виз": 2144,
 "силы</w>": 2145,
 "ости</w>": 2146,
 "щая</w>": 2147,
 "беспокой": 2148,
 "благодар": 2149,
 "любви</w>": 2150,
 "чать</w>": 2151,
 "тесь</w>": 2152,
 "стой</w>": 2153,
 "петр</w>": 2154,
 "уби": 2155,
 "спи": 2156,
 "кам</w>": 2157,
 "мини": 2158,
 "гать</w>": 2159,
 "вшей</w>": 2160,
 "самой</w>": 2161,
 "образом</w>": 2162,
 "понимаю</w>": 2163,
 "матери</w>": 2164,
 "вокруг</w>": 2165,
 "ощ": 2166,
 "тая</w>": 2167,
 "нуло</w>": 2168,
 "пришел</w>": 2169,
 "пять</w>": 2170,
 "другое</w>": 2171,
 "пох": 2172,
 "су</w>": 2173,
 "нуж": 2174,
 "тов</w>": 2175,
 "бога": 2176,
 "оси": 2177,
 "казался</w>": 2178,
 "гря": 2179,
 "представ": 2180,
 "зади</w>": 2181,
 "команди": 2182,
 "шепт": 2183,
 "кот</w>": 2184,
 "ходить</w>": 2185,
 "улиц": 2186,
 "un</w>": 2187,
 "офицер": 2188,
 "смерти</w>": 2189,
 "скому</w>": 2190,
 "мной</w>": 2191,
 "любо": 2192,
 "цар": 2193,
 "енных</w>": 2194,
 "одним</w>": 2195,
 "взгляд</w>": 2196,
 "ции</w>": 2197,
 "главно": 2198,
 "павел</w>": 2199,
 "нел": 2200,
 "отча": 2201,
 "веро": 2202,
 "причи": 2203,
 "востор": 2204,
 "винова": 2205,
 "далеко</w>": 2206,
 "рак": 2207,
 "кара": 2208,
 "рал</w>": 2209,
 "гин": 2210,
 "дит</w>": 2211,
 "молч": 2212,
 "ственно</w>": 2213,
 "точ": 2214,
 "меч": 2215,
 "горя": 2216,
 "ница</w>": 2217,
 "слова": 2218,
 "ii</w>": 2219,
 "возможно</w>": 2220,
 "распоря": 2221,
 "вни": 2222,
 "начи": 2223,
 "тер</w>": 2224,
 "молв": 2225,
 "возду": 2226,
 "имел</w>": 2227,
 "пита": 2228,
 "встал</w>": 2229,
 "лошади</w>": 2230,
 "команду": 2231,
 "идти</w>": 2232,
 "соглас": 2233,
 "митри": 2234,
 "анатол": 2235,
 "шел": 2236,
 "рах</w>": 2237,
 "ужд": 2238,
 "шать</w>": 2239,
 "bou": 2240,
 "закричал</w>": 2241,
 "замеча": 2242,
 "александров": 2243,
 "рю": 2244,
 "забы": 2245,
 "никого</w>": 2246,
 "проща": 2247,
 "большой</w>": 2248,
 "предлож": 2249,
 "счита": 2250,
 "женщина</w>": 2251,
 "вероят": 2252,
 "зу": 2253,
 "ена</w>": 2254,
 "отда": 2255,
 "запа": 2256,
 "досто": 2257,
 "щий</w>": 2258,
 "вают</w>": 2259,
 "груст": 2260,
 "весело</w>": 2261,
 "огром": 2262,
 "надеж": 2263,
 "элен</w>": 2264,
 "знакомы": 2265,
 "присут": 2266,
 "lu": 2267,
 "ще</w>": 2268,
 "так": 2269,
 "ован": 2270,
 "багра": 2271,
 "жар": 2272,
 "колен": 2273,
 "потреб": 2274,
 "михай": 2275,
 "дмитри": 2276,
 "баграти": 2277,
 "ек</w>": 2278,
 "похо": 2279,
 "сторон</w>": 2280,
 "tou": 2281,
 "ствия</w>": 2282,
 "поступ": 2283,
 "хму": 2284,
 "могло</w>": 2285,
 "противо": 2286,
 "прер": 2287,
 "рок</w>": 2288,
 "нес</w>": 2289,
 "нию</w>": 2290,
 "кала</w>": 2291,
 "неуж": 2292,
 "опу": 2293,
 "душе</w>": 2294,
 "затем</w>": 2295,
 "рядом</w>": 2296,
 "романов": 2297,
 "ак": 2298,
 "аза": 2299,
 "оде": 2300,
 "зная</w>": 2301,
 "стоп": 2302,
 "ростова</w>": 2303,
 "понят": 2304,
 "нена": 2305,
 "ребен": 2306,
 "главнокоманду": 2307,
 "оч": 2308,
 "вов": 2309,
 "еля</w>": 2310,
 "куп": 2311,
 "тря": 2312,
 "спе": 2313,
 "вернулся</w>": 2314,
 "ющие</w>": 2315,
 "ère</w>": 2316,
 "наташи</w>": 2317,
 "берли": 2318,
 "цеп": 2319,
 "тяжело</w>": 2320,
 "узнал</w>": 2321,
 "еб": 2322,
 "1</w>": 2323,
 "дал": 2324,
 "оши": 2325,
 "гов</w>": 2326,
 "вало</w>": 2327,
 "жая</w>": 2328,
 "французы</w>": 2329,
 "казать</w>": 2330,
 "край": 2331,
 "pas</w>": 2332,
 "успоко": 2333,
 "деятель": 2334,
 "тысяч</w>": 2335,
 "любопыт": 2336,
 "пя": 2337,
 "яр": 2338,
 "ноч": 2339,
 "ску</w>": 2340,
 "всеми</w>": 2341,
 "знала</w>": 2342,
 "глазах</w>": 2343,
 "справед": 2344,
 "побед": 2345,
 "тий</w>": 2346,
 "алпа": 2347,
 "соба": 2348,
 "сквоз": 2349,
 "деву": 2350,
 "задум": 2351,
 "сына</w>": 2352,
 "позиц": 2353,
 "вообщ": 2354,
 "повто": 2355,
 "странно</w>": 2356,
 "генерал": 2357,
 "обращаясь</w>": 2358,
 "происход": 2359,
 "непременно</w>": 2360,
 "княгин": 2361,
 "азазел": 2362,
 "алпаты": 2363,
 "вообще</w>": 2364,
 "азазелло</w>": 2365,
 "еди": 2366,
 "выраз": 2367,
 "гах</w>": 2368,
 "осв": 2369,
 "заговорил</w>": 2370,
 "гиб": 2371,
 "ющим</w>": 2372,
 "часа</w>": 2373,
 "истори": 2374,
 "йдет</w>": 2375,
 "зами</w>": 2376,
 "ливо": 2377,
 "оттого</w>": 2378,
 "почт": 2379,
 "второ": 2380,
 "платье</w>": 2381,
 "товари": 2382,
 "ув": 2383,
 "фу": 2384,
 "гал": 2385,
 "сня": 2386,
 "езд": 2387,
 "слав": 2388,
 "гений</w>": 2389,
 "случае</w>": 2390,
 "зелен": 2391,
 "должны</w>": 2392,
 "необходимо": 2393,
 "семенов": 2394,
 "невольно</w>": 2395,
 "неужели</w>": 2396,
 "ra": 2397,
 "кап": 2398,
 "стве</w>": 2399,
 "чуж": 2400,
 "енным</w>": 2401,
 "держи": 2402,
 "вижу</w>": 2403,
 "нче</w>": 2404,
 "ир": 2405,
 "ma": 2406,
 "мель": 2407,
 "тия</w>": 2408,
 "игра": 2409,
 "совет": 2410,
 "окон": 2411,
 "pou": 2412,
 "принима": 2413,
 "отвор": 2414,
 "глядел</w>": 2415,
 "лошадей</w>": 2416,
 "поцелов": 2417,
 "берлио": 2418,
 "сквозь</w>": 2419,
 "нынче</w>": 2420,
 "зап": 2421,
 "ходя</w>": 2422,
 "вшим</w>": 2423,
 "другого</w>": 2424,
 "креп": 2425,
 "видела</w>": 2426,
 "десять</w>": 2427,
 "ворот": 2428,
 "будут</w>": 2429,
 "увидал</w>": 2430,
 "пример</w>": 2431,
 "in": 2432,
 "стер": 2433,
 "соф": 2434,
 "сторо": 2435,
 "вид</w>": 2436,
 "места</w>": 2437,
 "вались</w>": 2438,
 "тиче": 2439,
 "четвер": 2440,
 "приготов": 2441,
 "наста": 2442,
 "узна": 2443,
 "гнул</w>": 2444,
 "постоя": 2445,
 "валась</w>": 2446,
 "николая</w>": 2447,
 "минуты</w>": 2448,
 "кресл": 2449,
 "теле": 2450,
 "объясн": 2451,
 "кричала</w>": 2452,
 "рами</w>": 2453,
 "пода": 2454,
 "шин": 2455,
 "пуль": 2456,
 "пригла": 2457,
 "любил</w>": 2458,
 "участ": 2459,
 "равно</w>": 2460,
 "молчал</w>": 2461,
 "enne</w>": 2462,
 "ественно</w>": 2463,
 "бывает</w>": 2464,
 "успел</w>": 2465,
 "ат": 2466,
 "пал</w>": 2467,
 "стави": 2468,
 "говоря</w>": 2469,
 "дуня</w>": 2470,
 "писал</w>": 2471,
 "ait</w>": 2472,
 "последнее</w>": 2473,
 "бег": 2474,
 "чувствовала</w>": 2475,
 "вечер</w>": 2476,
 "хочет</w>": 2477,
 "треть": 2478,
 "мгновение</w>": 2479,
 "свидригайлов</w>": 2480,
 "изви": 2481,
 "пораз": 2482,
 "лес": 2483,
 "знаком": 2484,
 "какого</w>": 2485,
 "прошу</w>": 2486,
 "сосед": 2487,
 "сомн": 2488,
 "заклю": 2489,
 "повторил</w>": 2490,
 "анатоль</w>": 2491,
 "наб": 2492,
 "юся</w>": 2493,
 "шем</w>": 2494,
 "ял</w>": 2495,
 "мере</w>": 2496,
 "устро": 2497,
 "вышла</w>": 2498,
 "кутузова</w>": 2499,
 "особенности</w>": 2500,
 "серге": 2501,
 "катерина</w>": 2502,
 "значит</w>": 2503,
 "вероятно</w>": 2504,
 "кам": 2505,
 "вско": 2506,
 "сков": 2507,
 "полов": 2508,
 "кля": 2509,
 "деть</w>": 2510,
 "гость</w>": 2511,
 "минут</w>": 2512,
 "ерия</w>": 2513,
 "сообщ": 2514,
 "кавал": 2515,
 "вместо</w>": 2516,
 "язан": 2517,
 "итесь</w>": 2518,
 "прел": 2519,
 "дам</w>": 2520,
 "проч": 2521,
 "сам": 2522,
 "один": 2523,
 "обращ": 2524,
 "думаю</w>": 2525,
 "поехал</w>": 2526,
 "колон": 2527,
 "карма": 2528,
 "порфирий</w>": 2529,
 "пры": 2530,
 "нев": 2531,
 "дав</w>": 2532,
 "перен": 2533,
 "слов</w>": 2534,
 "вую</w>": 2535,
 "хотите</w>": 2536,
 "начин": 2537,
 "услы": 2538,
 "сидела</w>": 2539,
 "поднял</w>": 2540,
 "часов</w>": 2541,
 "нулись</w>": 2542,
 "никакого</w>": 2543,
 "губер": 2544,
 "пилат</w>": 2545,
 "mo": 2546,
 "рад": 2547,
 "тах</w>": 2548,
 "моей</w>": 2549,
 "стом</w>": 2550,
 "ятся</w>": 2551,
 "просил</w>": 2552,
 "богу</w>": 2553,
 "каждо": 2554,
 "окру": 2555,
 "госпо": 2556,
 "способ": 2557,
 "главное</w>": 2558,
 "поспешно</w>": 2559,
 "вшегося</w>": 2560,
 "оскор": 2561,
 "ерк": 2562,
 "бил": 2563,
 "луж": 2564,
 "нин</w>": 2565,
 "такого</w>": 2566,
 "отступ": 2567,
 "взглядом</w>": 2568,
 "показалось</w>": 2569,
 "никано": 2570,
 "вшиеся</w>": 2571,
 "кабине": 2572,
 "воспомина": 2573,
 "слезы</w>": 2574,
 "ены</w>": 2575,
 "лав": 2576,
 "поли": 2577,
 "широ": 2578,
 "яться</w>": 2579,
 "пора</w>": 2580,
 "ником</w>": 2581,
 "дор</w>": 2582,
 "город</w>": 2583,
 "громко</w>": 2584,
 "связ": 2585,
 "хватил</w>": 2586,
 "любовь</w>": 2587,
 "печат": 2588,
 "испыты": 2589,
 "повторя": 2590,
 "евгений</w>": 2591,
 "ом": 2592,
 "пос": 2593,
 "оты": 2594,
 "ску": 2595,
 "рим": 2596,
 "впол": 2597,
 "рова</w>": 2598,
 "жены</w>": 2599,
 "стояла</w>": 2600,
 "едва</w>": 2601,
 "серди": 2602,
 "крыль": 2603,
 "лением</w>": 2604,
 "такая</w>": 2605,
 "цев</w>": 2606,
 "ужасно</w>": 2607,
 "доктор</w>": 2608,
 "евич</w>": 2609,
 "ья": 2610,
 "ону": 2611,
 "скла": 2612,
 "кун": 2613,
 "черт</w>": 2614,
 "терп": 2615,
 "одном</w>": 2616,
 "торж": 2617,
 "улыбнулся</w>": 2618,
 "ницы</w>": 2619,
 "движения</w>": 2620,
 "растоп": 2621,
 "рать</w>": 2622,
 "тет": 2623,
 "хри": 2624,
 "сит</w>": 2625,
 "ева</w>": 2626,
 "плы": 2627,
 "шут": 2628,
 "удар": 2629,
 "русских</w>": 2630,
 "помощ": 2631,
 "v</w>": 2632,
 "нал": 2633,
 "хов": 2634,
 "нару": 2635,
 "сил</w>": 2636,
 "нули</w>": 2637,
 "деви": 2638,
 "умол": 2639,
 "гут</w>": 2640,
 "лении</w>": 2641,
 "des</w>": 2642,
 "видом</w>": 2643,
 "тору</w>": 2644,
 "опуст": 2645,
 "встрет": 2646,
 "нахму": 2647,
 "прон": 2648,
 "несл": 2649,
 "шему</w>": 2650,
 "чему</w>": 2651,
 "серед": 2652,
 "занима": 2653,
 "княжны</w>": 2654,
 "домой</w>": 2655,
 "дрож": 2656,
 "адъютант</w>": 2657,
 "тобой</w>": 2658,
 "па</w>": 2659,
 "вто": 2660,
 "тые</w>": 2661,
 "тым</w>": 2662,
 "вается</w>": 2663,
 "qu</w>": 2664,
 "положении</w>": 2665,
 "мун": 2666,
 "ениях</w>": 2667,
 "явля": 2668,
 "лению</w>": 2669,
 "господи</w>": 2670,
 "té</w>": 2671,
 "пожалуй": 2672,
 "угл": 2673,
 "столько</w>": 2674,
 "раскольникова</w>": 2675,
 "денисова</w>": 2676,
 "гряз": 2677,
 "пульх": 2678,
 "пожалуйста</w>": 2679,
 "2</w>": 2680,
 "сто</w>": 2681,
 "ием</w>": 2682,
 "дает</w>": 2683,
 "гри": 2684,
 "дут</w>": 2685,
 "которому</w>": 2686,
 "голова</w>": 2687,
 "стол</w>": 2688,
 "ость</w>": 2689,
 "гроз": 2690,
 "волн": 2691,
 "дорогу</w>": 2692,
 "йдя</w>": 2693,
 "произо": 2694,
 "смеялся</w>": 2695,
 "разговари": 2696,
 "счет</w>": 2697,
 "вниз</w>": 2698,
 "оби": 2699,
 "хит": 2700,
 "рад</w>": 2701,
 "инач": 2702,
 "собствен": 2703,
 "глубо": 2704,
 "корот": 2705,
 "человече": 2706,
 "bouri": 2707,
 "иначе</w>": 2708,
 "разу</w>": 2709,
 "роде</w>": 2710,
 "свет</w>": 2711,
 "протя": 2712,
 "бежала</w>": 2713,
 "труд": 2714,
 "фигу": 2715,
 "ростовых</w>": 2716,
 "секун": 2717,
 "bourienne</w>": 2718,
 "друж": 2719,
 "анг": 2720,
 "свеч": 2721,
 "брата</w>": 2722,
 "стоятель": 2723,
 "раздраж": 2724,
 "подроб": 2725,
 "неподви": 2726,
 "вшихся</w>": 2727,
 "дяд": 2728,
 "мунди": 2729,
 "аре": 2730,
 "шить</w>": 2731,
 "вста": 2732,
 "овали</w>": 2733,
 "ан</w>": 2734,
 "живо": 2735,
 "чиво</w>": 2736,
 "запла": 2737,
 "велич": 2738,
 "цель</w>": 2739,
 "русские</w>": 2740,
 "вшая</w>": 2741,
 "движение</w>": 2742,
 "чрез": 2743,
 "радостно</w>": 2744,
 "воскли": 2745,
 "промолв": 2746,
 "товарищ": 2747,
 "фе": 2748,
 "вон</w>": 2749,
 "чив</w>": 2750,
 "нечего</w>": 2751,
 "прошел</w>": 2752,
 "голове</w>": 2753,
 "наташу</w>": 2754,
 "почувствовал</w>": 2755,
 "стараясь</w>": 2756,
 "авдот": 2757,
 "ss": 2758,
 "su": 2759,
 "яя</w>": 2760,
 "зва": 2761,
 "проф": 2762,
 "ске</w>": 2763,
 "мет</w>": 2764,
 "вез": 2765,
 "дель": 2766,
 "дочер": 2767,
 "поднима": 2768,
 "рубл": 2769,
 "сын</w>": 2770,
 "волнов": 2771,
 "con": 2772,
 "ствовать</w>": 2773,
 "благород": 2774,
 "позвольте</w>": 2775,
 "це": 2776,
 "re": 2777,
 "раш": 2778,
 "тил": 2779,
 "ести</w>": 2780,
 "шими</w>": 2781,
 "подъ": 2782,
 "пуска": 2783,
 "жена</w>": 2784,
 "смех": 2785,
 "поднялся</w>": 2786,
 "лежа": 2787,
 "лежал</w>": 2788,
 "власть</w>": 2789,
 "какую</w>": 2790,
 "наш</w>": 2791,
 "пожалуй</w>": 2792,
 "оруди": 2793,
 "начина": 2794,
 "преры": 2795,
 "аль</w>": 2796,
 "кост": 2797,
 "цем</w>": 2798,
 "раза</w>": 2799,
 "попа": 2800,
 "сход": 2801,
 "бары": 2802,
 "свеж": 2803,
 "конч": 2804,
 "францу": 2805,
 "лично</w>": 2806,
 "наши</w>": 2807,
 "трудно</w>": 2808,
 "воображ": 2809,
 "вычай": 2810,
 "осторо": 2811,
 "чрезвычай": 2812,
 "уг": 2813,
 "мени": 2814,
 "поход": 2815,
 "дево": 2816,
 "прави": 2817,
 "чин</w>": 2818,
 "чке</w>": 2819,
 "войны</w>": 2820,
 "ницу</w>": 2821,
 "судь": 2822,
 "будущ": 2823,
 "неожиданно</w>": 2824,
 "настоящ": 2825,
 "например</w>": 2826,
 "жи</w>": 2827,
 "ина": 2828,
 "скими</w>": 2829,
 "тыми</w>": 2830,
 "хотела</w>": 2831,
 "ившись</w>": 2832,
 "варен": 2833,
 "une</w>": 2834,
 "nous</w>": 2835,
 "самых</w>": 2836,
 "деся": 2837,
 "ваш</w>": 2838,
 "насмеш": 2839,
 "слушал</w>": 2840,
 "случилось</w>": 2841,
 "кавалер": 2842,
 "vo": 2843,
 "ор</w>": 2844,
 "обла": 2845,
 "фет": 2846,
 "мои</w>": 2847,
 "отдел": 2848,
 "снов": 2849,
 "пес": 2850,
 "видал</w>": 2851,
 "локо": 2852,
 "исч": 2853,
 "жать</w>": 2854,
 "коле": 2855,
 "толст": 2856,
 "довер": 2857,
 "против": 2858,
 "ant</w>": 2859,
 "одному</w>": 2860,
 "кровь</w>": 2861,
 "квартире</w>": 2862,
 "народ</w>": 2863,
 "площа": 2864,
 "необыкнов": 2865,
 "перебил</w>": 2866,
 "презр": 2867,
 "et": 2868,
 "пока": 2869,
 "физ": 2870,
 "дуне": 2871,
 "рачи": 2872,
 "ечка</w>": 2873,
 "имы": 2874,
 "щим</w>": 2875,
 "cou": 2876,
 "чувства</w>": 2877,
 "вче": 2878,
 "вести</w>": 2879,
 "tes</w>": 2880,
 "шею</w>": 2881,
 "твор": 2882,
 "клады": 2883,
 "оглянулся</w>": 2884,
 "окна</w>": 2885,
 "ближе</w>": 2886,
 "празд": 2887,
 "разуме": 2888,
 "послышался</w>": 2889,
 "жерт": 2890,
 "княгиня</w>": 2891,
 "фа</w>": 2892,
 "ств</w>": 2893,
 "менее</w>": 2894,
 "боже</w>": 2895,
 "ствии</w>": 2896,
 "авст": 2897,
 "дороги</w>": 2898,
 "словом</w>": 2899,
 "овым</w>": 2900,
 "таких</w>": 2901,
 "всякий</w>": 2902,
 "сражение</w>": 2903,
 "спокойно</w>": 2904,
 "поклон": 2905,
 "войск</w>": 2906,
 "россии</w>": 2907,
 "понимал</w>": 2908,
 "18": 2909,
 "рот</w>": 2910,
 "тащ": 2911,
 "обма": 2912,
 "дом": 2913,
 "чами</w>": 2914,
 "сапо": 2915,
 "дала</w>": 2916,
 "поло": 2917,
 "полез": 2918,
 "делал</w>": 2919,
 "смол": 2920,
 "одни</w>": 2921,
 "хле": 2922,
 "шке</w>": 2923,
 "наташе</w>": 2924,
 "ствием</w>": 2925,
 "перемен": 2926,
 "ma</w>": 2927,
 "равно": 2928,
 "qui</w>": 2929,
 "ans</w>": 2930,
 "отвечала</w>": 2931,
 "провод": 2932,
 "соображ": 2933,
 "марьи</w>": 2934,
 "женщины</w>": 2935,
 "du</w>": 2936,
 "указывая</w>": 2937,
 "вполне</w>": 2938,
 "вчераш": 2939,
 "австри": 2940,
 "ll": 2941,
 "кать</w>": 2942,
 "тар": 2943,
 "чей</w>": 2944,
 "дура": 2945,
 "имен": 2946,
 "жив": 2947,
 "нуться</w>": 2948,
 "слуши": 2949,
 "смотрели</w>": 2950,
 "стола</w>": 2951,
 "казалась</w>": 2952,
 "вей": 2953,
 "среди</w>": 2954,
 "должна</w>": 2955,
 "онапар": 2956,
 "денег</w>": 2957,
 "двадцать</w>": 2958,
 "убий": 2959,
 "жа</w>": 2960,
 "фра": 2961,
 "оны</w>": 2962,
 "эта": 2963,
 "разв": 2964,
 "рить</w>": 2965,
 "лиц</w>": 2966,
 "ленный</w>": 2967,
 "желал</w>": 2968,
 "изред": 2969,
 "москов": 2970,
 "спрашивал</w>": 2971,
 "вечером</w>": 2972,
 "гражда": 2973,
 "харак": 2974,
 "александровна</w>": 2975,
 "изредка</w>": 2976,
 "ху": 2977,
 "сне": 2978,
 "бре": 2979,
 "сих</w>": 2980,
 "бами</w>": 2981,
 "дней</w>": 2982,
 "помин": 2983,
 "утра</w>": 2984,
 "ялась</w>": 2985,
 "глупо": 2986,
 "самым</w>": 2987,
 "историче": 2988,
 "низу</w>": 2989,
 "надца": 2990,
 "первого</w>": 2991,
 "павловна</w>": 2992,
 "пульхерия</w>": 2993,
 "юб": 2994,
 "ni": 2995,
 "тал": 2996,
 "иль</w>": 2997,
 "нес": 2998,
 "пору": 2999,
 "пил</w>": 3000,
 "дома": 3001,
 "камен": 3002,
 "всему</w>": 3003
}