{
 "<pad>": 0,
 "<unk>": 1,
 "<bos>": 2,
 "<eos>": 3,
 "\u0007": 4,
 "!": 5,
 "\"": 6,
 "'": 7,
 "(": 8,
 ")": 9,
 "*": 10,
 ",": 11,
 "-": 12,
 ".": 13,
 "0": 14,
 "1": 15,
 "2": 16,
 "3": 17,
 "4": 18,
 "5": 19,
 "6": 20,
 "7": 21,
 "8": 22,
 "9": 23,
 ":": 24,
 ";": 25,
 "<": 26,
 "</w>": 27,
 "=": 28,
 ">": 29,
 "?": 30,
 "a": 31,
 "b": 32,
 "c": 33,
 "d": 34,
 "e": 35,
 "f": 36,
 "g": 37,
 "h": 38,
 "i": 39,
 "j": 40,
 "k": 41,
 "l": 42,
 "m": 43,
 "n": 44,
 "o": 45,
 "p": 46,
 "q": 47,
 "r": 48,
 "s": 49,
 "t": 50,
 "u": 51,
 "v": 52,
 "w": 53,
 "x": 54,
 "y": 55,
 "z": 56,
 "«": 57,
 "°": 58,
 "»": 59,
 "ß": 60,
 "à": 61,
 "â": 62,
 "ä": 63,
 "ç": 64,
 "è": 65,
 "é": 66,
 "ê": 67,
 "ë": 68,
 "î": 69,
 "ï": 70,
 "ô": 71,
 "ö": 72,
 "ù": 73,
 "û": 74,
 "ü": 75,
 "œ": 76,
 "́": 77,
 "а": 78,
 "б": 79,
 "в": 80,
 "г": 81,
 "д": 82,
 "е": 83,
 "ж": 84,
 "з": 85,
 "и": 86,
 "й": 87,
 "к": 88,
 "л": 89,
 "м": 90,
 "н": 91,
 "о": 92,
 "п": 93,
 "р": 94,
 "с": 95,
 "т": 96,
 "у": 97,
 "ф": 98,
 "х": 99,
 "ц": 100,
 "ч": 101,
 "ш": 102,
 "щ": 103,
 "ъ": 104,
 "ы": 105,
 "ь": 106,
 "э": 107,
 "ю": 108,
 "я": 109,
 "ё": 110,
 "–": 111,
 "—": 112,
 "“": 113,
 "„": 114,
 "…": 115,
 ",</w>": 116,
 "о</w>": 117,
 "и</w>": 118,
 "е</w>": 119,
 "а</w>": 120,
 ".</w>": 121,
 "я</w>": 122,
 "ь</w>": 123,
 "ст": 124,
 "ал": 125,
 "по": 126,
 "й</w>": 127,
 "м</w>": 128,
 "ов": 129,
 "ен": 130,
 "-</w>": 131,
 "ра": 132,
 "у</w>": 133,
 "ко": 134,
 "то</w>": 135,
 "ер": 136,
 "то": 137,
 "ел": 138,
 "пр": 139,
 "ка": 140,
 "он": 141,
 "в</w>": 142,
 "ил": 143,
 "т</w>": 144,
 "на": 145,
 "го</w>": 146,
 "к</w>": 147,
 "ы</w>": 148,
 "во": 149,
 "не": 150,
 "но</w>": 151,
 "ни": 152,
 "не</w>": 153,
 "ть</w>": 154,
 "но": 155,
 "на</w>": 156,
 "ро": 157,
 "х</w>": 158,
 "ал</w>": 159,
 "с</w>": 160,
 "ол": 161,
 "за": 162,
 "что</w>": 163,
 "ся</w>": 164,
 "ю</w>": 165,
 "от": 166,
 "он</w>": 167,
 "сь</w>": 168,
 "ва": 169,
 "бы": 170,
 "та": 171,
 "ед": 172,
 "од": 173,
 "сл": 174,
 "об": 175,
 "ны": 176,
 "ру": 177,
 "его</w>": 178,
 "ре": 179,
 "ви": 180,
 "ор": 181,
 "вс": 182,
 "ла": 183,
 "ет": 184,
 "мо": 185,
 "ени": 186,
 "при": 187,
 "был": 188,
 "ма": 189,
 "да</w>": 190,
 "ну": 191,
 "ми</w>": 192,
 "да": 193,
 "му</w>": 194,
 "!</w>": 195,
 "про": 196,
 "ил</w>": 197,
 "же</w>": 198,
 "ем</w>": 199,
 "из": 200,
 "вы": 201,
 "ест": 202,
 "до": 203,
 "как</w>": 204,
 "ли": 205,
 "ск": 206,
 "?</w>": 207,
 "пер": 208,
 "ит": 209,
 "раз": 210,
 "ет</w>": 211,
 "ска": 212,
 "ши": 213,
 "ча": 214,
 "ня": 215,
 "ста": 216,
 "ов</w>": 217,
 "под": 218,
 "ей</w>": 219,
 "ль": 220,
 "са": 221,
 "ин": 222,
 "ко</w>": 223,
 "ел</w>": 224,
 "уд": 225,
 "ри": 226,
 "'</w>": 227,
 "ала</w>": 228,
 "го": 229,
 "–</w>": 230,
 "ско": 231,
 "сво": 232,
 "ры": 233,
 "гов": 234,
 "e</w>": 235,
 "она</w>": 236,
 "кото": 237,
 "ез": 238,
 "это</w>": 239,
 "те": 240,
 "ка</w>": 241,
 "пол": 242,
 "со": 243,
 "вер": 244,
 "говор": 245,
 "ее</w>": 246,
 "ель": 247,
 "бы</w>": 248,
 "ду": 249,
 "за</w>": 250,
 "ля": 251,
 "се": 252,
 ";</w>": 253,
 "дел": 254,
 "ти": 255,
 "ки</w>": 256,
 "ств": 257,
 "см": 258,
 "па": 259,
 "еж": 260,
 "мен": 261,
 "ми": 262,
 "сказ": 263,
 "дру": 264,
 "ки": 265,
 "г</w>": 266,
 "так</w>": 267,
 "ему</w>": 268,
 "нов": 269,
 "чи": 270,
 "было</w>": 271,
 "али</w>": 272,
 "зна": 273,
 "гда</w>": 274,
 "ан": 275,
 "ес": 276,
 ":</w>": 277,
 "все</w>": 278,
 "это": 279,
 "лько</w>": 280,
 "лю": 281,
 "уж": 282,
 "ку": 283,
 "по</w>": 284,
 "нул": 285,
 "рас": 286,
 "ной</w>": 287,
 "сто": 288,
 "ход": 289,
 "вид": 290,
 "буд": 291,
 "ный</w>": 292,
 "вы</w>": 293,
 "га": 294,
 "ты</w>": 295,
 "их</w>": 296,
 "из</w>": 297,
 "ли</w>": 298,
 "ло": 299,
 "ить</w>": 300,
 "кня": 301,
 "ба": 302,
 "бол": 303,
 "пу": 304,
 "или</w>": 305,
 "бо": 306,
 "ещ": 307,
 "ша": 308,
 "хо": 309,
 "вши": 310,
 "ту": 311,
 "s</w>": 312,
 "еч": 313,
 "ку</w>": 314,
 "ни</w>": 315,
 "от</w>": 316,
 "ного</w>": 317,
 "ься</w>": 318,
 "де": 319,
 "гла": 320,
 "гол": 321,
 "ер</w>": 322,
 "пра": 323,
 "си": 324,
 "ила</w>": 325,
 "ис": 326,
 "только</w>": 327,
 "ение</w>": 328,
 "ност": 329,
 "ран": 330,
 "ров": 331,
 "сказал</w>": 332,
 "был</w>": 333,
 "ился</w>": 334,
 "кой</w>": 335,
 "ения</w>": 336,
 "ти</w>": 337,
 "том</w>": 338,
 "жи": 339,
 "су": 340,
 "во</w>": 341,
 "себ": 342,
 "пь": 343,
 "ди": 344,
 "ным</w>": 345,
 "ось</w>": 346,
 "до</w>": 347,
 "те</w>": 348,
 "ать</w>": 349,
 "д</w>": 350,
 "которы": 351,
 "ась</w>": 352,
 "гра": 353,
 "вз": 354,
 "ну</w>": 355,
 "ное</w>": 356,
 "мол": 357,
 "елов": 358,
 "когда</w>": 359,
 "ись</w>": 360,
 "лиц": 361,
 "пред": 362,
 "ле": 363,
 "ят": 364,
 "мы": 365,
 "ич": 366,
 "еще</w>": 367,
 "ные</w>": 368,
 "ла</w>": 369,
 "р</w>": 370,
 "аль": 371,
 "ался</w>": 372,
 "гля": 373,
 "жен": 374,
 "соб": 375,
 "щи": 376,
 "мож": 377,
 "чу": 378,
 "ски": 379,
 "де</w>": 380,
 "ясь</w>": 381,
 "сов": 382,
 "ом</w>": 383,
 "посл": 384,
 "каз": 385,
 "еш": 386,
 "чего</w>": 387,
 "княз": 388,
 "ля</w>": 389,
 "ар": 390,
 "ше</w>": 391,
 "лен": 392,
 "чер": 393,
 "воз": 394,
 "чем</w>": 395,
 "ой</w>": 396,
 "ря": 397,
 "ин</w>": 398,
 "ев": 399,
 "челов": 400,
 "та</w>": 401,
 "им": 402,
 "ту</w>": 403,
 "чен": 404,
 "дол": 405,
 "что": 406,
 "которо": 407,
 "ных</w>": 408,
 "хот": 409,
 "ум": 410,
 "него</w>": 411,
 "шел</w>": 412,
 "мар": 413,
 "л</w>": 414,
 "прос": 415,
 "тепер": 416,
 "ели</w>": 417,
 "смот": 418,
 "ять</w>": 419,
 "сил": 420,
 "уже</w>": 421,
 "ра</w>": 422,
 "нет</w>": 423,
 "теперь</w>": 424,
 "пет": 425,
 "уч": 426,
 "того</w>": 427,
 "мне</w>": 428,
 "ива": 429,
 "н</w>": 430,
 "боль": 431,
 "все": 432,
 "ны</w>": 433,
 "св": 434,
 "челове": 435,
 "для</w>": 436,
 "перед": 437,
 "t</w>": 438,
 "ке</w>": 439,
 "нул</w>": 440,
 "ты": 441,
 "ться</w>": 442,
 "раж": 443,
 "став": 444,
 "вот</w>": 445,
 "нее</w>": 446,
 "ех": 447,
 "отв": 448,
 "ова</w>": 449,
 "ется</w>": 450,
 "енно</w>": 451,
 "ком</w>": 452,
 "ная</w>": 453,
 "ез</w>": 454,
 "стоя": 455,
 "уб": 456,
 "пи": 457,
 "вре": 458,
 "друг</w>": 459,
 "тер": 460,
 "ней</w>": 461,
 "ва</w>": 462,
 "вед": 463,
 "лы": 464,
 "они</w>": 465,
 "дре": 466,
 "ья</w>": 467,
 "кри": 468,
 "ью</w>": 469,
 "им</w>": 470,
 "ит</w>": 471,
 "ды": 472,
 "меня</w>": 473,
 "вал</w>": 474,
 "быть</w>": 475,
 "ду</w>": 476,
 "ник": 477,
 "ую</w>": 478,
 "итель": 479,
 "чув": 480,
 "стор": 481,
 "кон": 482,
 "люб": 483,
 "слу": 484,
 "част": 485,
 "себя</w>": 486,
 "ou": 487,
 "тому</w>": 488,
 "уз": 489,
 "ите</w>": 490,
 "ден": 491,
 "сту": 492,
 "смотр": 493,
 "ало</w>": 494,
 "сер": 495,
 "говорил</w>": 496,
 "ло</w>": 497,
 "была</w>": 498,
 "нико": 499,
 "ша</w>": 500,
 "ете</w>": 501,
 "андре": 502,
 "чтобы</w>": 503,
 "ном</w>": 504,
 "тель": 505,
 "оп": 506,
 "пьер</w>": 507,
 "люд": 508,
 "ната": 509,
 "ние</w>": 510,
 "ц</w>": 511,
 "мест": 512,
 "есть</w>": 513,
 "вая</w>": 514,
 "стви": 515,
 "ма</w>": 516,
 "алось</w>": 517,
 "жа": 518,
 "n</w>": 519,
 "нима": 520,
 "князь</w>": 521,
 "ё</w>": 522,
 "граф": 523,
 "нач": 524,
 "бу": 525,
 "мы</w>": 526,
 "пере": 527,
 "вш": 528,
 "всё</w>": 529,
 "год": 530,
 "мя</w>": 531,
 "сп": 532,
 "чувств": 533,
 "пла": 534,
 "стра": 535,
 "прав": 536,
 "вдруг</w>": 537,
 "тре": 538,
 "этого</w>": 539,
 "были</w>": 540,
 "ались</w>": 541,
 "рост": 542,
 "иц": 543,
 "очен": 544,
 "пом": 545,
 "ним</w>": 546,
 "жел": 547,
 "очень</w>": 548,
 "гу": 549,
 "поч": 550,
 "дер": 551,
 "ком": 552,
 "даже</w>": 553,
 "ранц": 554,
 "че": 555,
 "ности</w>": 556,
 "время</w>": 557,
 ")</w>": 558,
 "ную</w>": 559,
 "опять</w>": 560,
 "зам": 561,
 "поко": 562,
 "под</w>": 563,
 "гор": 564,
 "ич</w>": 565,
 "стол": 566,
 "тем</w>": 567,
 "бл": 568,
 "гу</w>": 569,
 "франц": 570,
 "теб": 571,
 "чно</w>": 572,
 "ен</w>": 573,
 "сти</w>": 574,
 "ож": 575,
 "ги": 576,
 "(</w>": 577,
 "оста": 578,
 "илась</w>": 579,
 "друго": 580,
 "ье</w>": 581,
 "голов": 582,
 "сть</w>": 583,
 "ела</w>": 584,
 "ния</w>": 585,
 "ют</w>": 586,
 "ничего</w>": 587,
 "вас</w>": 588,
 "кры": 589,
 "ца</w>": 590,
 "бес": 591,
 "само": 592,
 "перед</w>": 593,
 "сол": 594,
 "ова": 595,
 "слы": 596,
 "кого</w>": 597,
 "вать</w>": 598,
 "час</w>": 599,
 "тол": 600,
 "где</w>": 601,
 "сдел": 602,
 "может</w>": 603,
 "сли</w>": 604,
 "этот</w>": 605,
 "себе</w>": 606,
 "алась</w>": 607,
 "вам</w>": 608,
 "обра": 609,
 "улы": 610,
 "род": 611,
 "га</w>": 612,
 "каж": 613,
 "голо": 614,
 "уж</w>": 615,
 "никола": 616,
 "ги</w>": 617,
 "пре": 618,
 "вшись</w>": 619,
 "лу": 620,
 "ении</w>": 621,
 "ща": 622,
 "мер": 623,
 "вест": 624,
 "человек</w>": 625,
 "пы": 626,
 "сколько</w>": 627,
 "раз</w>": 628,
 "потому</w>": 629,
 "тут</w>": 630,
 "ский</w>": 631,
 "ве</w>": 632,
 "вой": 633,
 "пе": 634,
 "ву": 635,
 "княж": 636,
 "ными</w>": 637,
 "жиз": 638,
 "i</w>": 639,
 "r</w>": 640,
 "спрос": 641,
 "француз": 642,
 "мо</w>": 643,
 "ков": 644,
 "сам</w>": 645,
 "хоро": 646,
 "дум": 647,
 "крас": 648,
 "але": 649,
 "будь</w>": 650,
 "нулся</w>": 651,
 "ень": 652,
 "стро": 653,
 "сон": 654,
 "мину": 655,
 "ред": 656,
 "сколь": 657,
 "сы": 658,
 "ющ": 659,
 "en": 660,
 "ведь</w>": 661,
 "вст": 662,
 "ня</w>": 663,
 "es</w>": 664,
 "ут": 665,
 "ность</w>": 666,
 "моск": 667,
 "прот": 668,
 "дом</w>": 669,
 "дар": 670,
 "дав": 671,
 "кое</w>": 672,
 "гро": 673,
 "вес": 674,
 "яс": 675,
 "вел": 676,
 "наташа</w>": 677,
 "дов": 678,
 "жно</w>": 679,
 "них</w>": 680,
 "сказала</w>": 681,
 "нибудь</w>": 682,
 "ешь</w>": 683,
 "каза": 684,
 "которые</w>": 685,
 "ше": 686,
 "ников</w>": 687,
 "всех</w>": 688,
 "кру": 689,
 "дц": 690,
 "прод": 691,
 "след": 692,
 "ве": 693,
 "ый</w>": 694,
 "вар": 695,
 "пис": 696,
 "со</w>": 697,
 "ением</w>": 698,
 "ожи": 699,
 "ера</w>": 700,
 "тор": 701,
 "который</w>": 702,
 "кто</w>": 703,
 "сла": 704,
 "андрей</w>": 705,
 "сти": 706,
 "ились</w>": 707,
 "будто</w>": 708,
 "поз": 709,
 "после</w>": 710,
 "ками</w>": 711,
 "кре": 712,
 "будет</w>": 713,
 "ах</w>": 714,
 "ив": 715,
 "a</w>": 716,
 "кая</w>": 717,
 "комна": 718,
 "при</w>": 719,
 "шь</w>": 720,
 "эти": 721,
 "один</w>": 722,
 "ющи": 723,
 "мой</w>": 724,
 "двер": 725,
 "вор": 726,
 "совер": 727,
 "вол": 728,
 "иться</w>": 729,
 "зн": 730,
 "ступ": 731,
 "ского</w>": 732,
 "дви": 733,
 "сказа": 734,
 "преж": 735,
 "ха": 736,
 "надо</w>": 737,
 "без</w>": 738,
 "счаст": 739,
 "жал": 740,
 "тя": 741,
 "ия</w>": 742,
 "бра": 743,
 "рав": 744,
 "лицо</w>": 745,
 "расколь": 746,
 "le</w>": 747,
 "ким</w>": 748,
 "кий</w>": 749,
 "хорош": 750,
 "ель</w>": 751,
 "глаза</w>": 752,
 "особ": 753,
 "петров": 754,
 "коне": 755,
 "там</w>": 756,
 "бла": 757,
 "взгля": 758,
 "оф": 759,
 "ме</w>": 760,
 "молод": 761,
 "би": 762,
 "илось</w>": 763,
 "qu": 764,
 "доро": 765,
 "полож": 766,
 "б</w>": 767,
 "дело</w>": 768,
 "своей</w>": 769,
 "ман": 770,
 "поня": 771,
 "потом</w>": 772,
 "ство</w>": 773,
 "улыб": 774,
 "без": 775,
 "ят</w>": 776,
 "общ": 777,
 "шла</w>": 778,
 "кие</w>": 779,
 "стр": 780,
 "му": 781,
 "лась</w>": 782,
 "re</w>": 783,
 "если</w>": 784,
 "ai": 785,
 "офиц": 786,
 "той</w>": 787,
 "прият": 788,
 "этом</w>": 789,
 "чал</w>": 790,
 "лся</w>": 791,
 "de</w>": 792,
 "нем</w>": 793,
 "беж": 794,
 "соверш": 795,
 "ч</w>": 796,
 "мог</w>": 797,
 "послед": 798,
 "доб": 799,
 "ых</w>": 800,
 "гар": 801,
 "ев</w>": 802,
 "слов": 803,
 "ым</w>": 804,
 "госу": 805,
 "пуст": 806,
 "тельно</w>": 807,
 "продол": 808,
 "ях</w>": 809,
 "тогда</w>": 810,
 "l</w>": 811,
 "ии</w>": 812,
 "гру": 813,
 "извест": 814,
 "напол": 815,
 "пор": 816,
 "более</w>": 817,
 "мил": 818,
 "рус": 819,
 "бе": 820,
 "ши</w>": 821,
 "бер": 822,
 "ди</w>": 823,
 "an": 824,
 "мал": 825,
 "дей": 826,
 "реш": 827,
 "мог": 828,
 "эти</w>": 829,
 "слыш": 830,
 "солда": 831,
 "стал</w>": 832,
 "подо": 833,
 "меж": 834,
 "ствен": 835,
 "замет": 836,
 "ской</w>": 837,
 "кра": 838,
 "ниц": 839,
 "ме": 840,
 "ило</w>": 841,
 "иванов": 842,
 "государ": 843,
 "ые</w>": 844,
 "ре</w>": 845,
 "ив</w>": 846,
 "дума": 847,
 "жал</w>": 848,
 "ительно</w>": 849,
 "яв": 850,
 "несколько</w>": 851,
 "покой": 852,
 "тот</w>": 853,
 "всегда</w>": 854,
 "муж": 855,
 "ж</w>": 856,
 "ний</w>": 857,
 "чувствов": 858,
 "ем": 859,
 "дела</w>": 860,
 "пря": 861,
 "ник</w>": 862,
 "жд": 863,
 "бор": 864,
 "тел": 865,
 "об</w>": 866,
 "свою</w>": 867,
 "через</w>": 868,
 "ений</w>": 869,
 "тебе</w>": 870,
 "можно</w>": 871,
 "оль": 872,
 "тоже</w>": 873,
 "ехал</w>": 874,
 "ков</w>": 875,
 "ответ": 876,
 "ках</w>": 877,
 "наполе": 878,
 "дя</w>": 879,
 "бро": 880,
 "чь</w>": 881,
 "зы": 882,
 "туз": 883,
 "спросил</w>": 884,
 "тр": 885,
 "тру": 886,
 "тан": 887,
 "on": 888,
 "маргар": 889,
 "между</w>": 890,
 "ями</w>": 891,
 "куда</w>": 892,
 "вый</w>": 893,
 "образ": 894,
 "шка</w>": 895,
 "сме": 896,
 "са</w>": 897,
 "ром</w>": 898,
 "нула</w>": 899,
 "день</w>": 900,
 "другой</w>": 901,
 "лов": 902,
 "много</w>": 903,
 "останов": 904,
 "прост": 905,
 "казалось</w>": 906,
 "сказать</w>": 907,
 "про</w>": 908,
 "тся</w>": 909,
 "веч": 910,
 "выраж": 911,
 "николай</w>": 912,
 "подня": 913,
 "лоша": 914,
 "ne</w>": 915,
 "княжна</w>": 916,
 "пл": 917,
 "йте</w>": 918,
 "тор</w>": 919,
 "рая</w>": 920,
 "з</w>": 921,
 "гот": 922,
 "еств": 923,
 "ства</w>": 924,
 "какой</w>": 925,
 "людей</w>": 926,
 "раскольников</w>": 927,
 "своего</w>": 928,
 "глаза": 929,
 "сторон": 930,
 "ге</w>": 931,
 "казы": 932,
 "дать</w>": 933,
 "нии</w>": 934,
 "спра": 935,
 "ставля": 936,
 "дел</w>": 937,
 "больше</w>": 938,
 "спо": 939,
 "кутуз": 940,
 "руку</w>": 941,
 "соня</w>": 942,
 "ские</w>": 943,
 "глу": 944,
 "ною</w>": 945,
 "ous</w>": 946,
 "сем</w>": 947,
 "вший</w>": 948,
 "месте</w>": 949,
 "над</w>": 950,
 "лон": 951,
 "шая</w>": 952,
 "кро": 953,
 "нему</w>": 954,
 "человека</w>": 955,
 "отвеч": 956,
 "жу</w>": 957,
 "кнул</w>": 958,
 "самы": 959,
 "ростов</w>": 960,
 "действи": 961,
 "маргарит": 962,
 "ному</w>": 963,
 "леж": 964,
 "истор": 965,
 "eu": 966,
 "ких</w>": 967,
 "ских</w>": 968,
 "кров": 969,
 "ch": 970,
 "луч": 971,
 "пов": 972,
 "ген": 973,
 "объ": 974,
 "ины</w>": 975,
 "говорить</w>": 976,
 "база": 977,
 "слова</w>": 978,
 "шей</w>": 979,
 "два</w>": 980,
 "хорошо</w>": 981,
 "кар": 982,
 "хва": 983,
 "мысл": 984,
 "совсем</w>": 985,
 "одно</w>": 986,
 "голову</w>": 987,
 "всего</w>": 988,
 "три": 989,
 "сом</w>": 990,
 "марья</w>": 991,
 "пров": 992,
 "понима": 993,
 "петрович</w>": 994,
 "дор": 995,
 "ится</w>": 996,
 "ян": 997,
 "ала": 998,
 "тих": 999,
 "менно</w>": 1000,
 "шу</w>": 1001,
 "взя": 1002,
 "встре": 1003
}